10010
11110
1111111111110011
1111111111111000
1111111111101001
1111111111110110
1111111110110110
111001
101001
0
10
1001
11110
1111111111101110
1010101
1111111111110011
1111111111111000
1101
100
100000
11100
1111111111100100
1111111111101110
1111111111001011
100101
1111111111101110
11110
1110
1111111111110001
1000111
1111111111010001
1111111111101000
1111111111101101
1111111111100111
1111111111011000
11011
11001
1111111111111100
10101
1111111110110010
10101
11101
100110
1111111111101011
1111111111110110
1111111111011110
1000
100
1011
0
111010
1111111111100100
1
0
1111111111110111
1
11111
1011
1111111111110001
1
1111111111101110
1111111111101100
101111
10111
1111111110111000
1111111111010000
1111111111110011
1111111111010111
110000
11111
1111111111101101
10000111
11111110
1111111111010111
1111111110100110
1111111110110001
1111111110110010
1111111111001001
1111111111100001
1111111111110010
110
1111111111100110
100
1111
1111111111101001
1111111111111001
1111111111100111
1111111111100101
0
1111111111111010
1001001
1111111111010010
1111111110010000
1111111101011111
1111111101011000
1111111100101101
1111111111001101
1111111101011100
1001000
110110010
11011000
101110000
10010101
1100011
10011
1111111001010100
1111111011010111
1111111111000100
1111111111000011
1101
1111111111011110
111010
1000000
10101
1111111111100101
1111111111010100
100001
1011001
1111111111101101
1111111110001111
1111111110000101
1111111100010000
1111111010111010
1111111101010110
1111111111100100
1111111000000010
1111111110001100
11011101
1110000001
110010111
100000
100110101
111011000
1111111010101000
1111111101001001
1111111111010000
1111111111100101
100011
101110
1
1111111111010100
1
1111111110111010
1001100
111000
110011
1111111110100010
1111111010010010
1111111010010011
1111111010110111
1111111010001010
1111110100101000
1111111000001001
1111110010001110
1111111000101000
1111111011111111
110001
1111111110110011
100010010
11011001
1111111111001010
1111111101000011
1111111111100111
110100001
110001100
110100
101101
10100
1111111111101100
110111
1111
1000011
1011110
11000010
11100001
10110001
111100
1110111
1111111111110100
1111110100000010
1111101101101011
1111110101111000
1111111111100001
1111111101010101
1100100
10110111
1001111111
1111111011011000
100110100
1111111010100010
1111111010010101
110100
110011
1111001
11000
10010
1111111110110110
1110
111000
1111111110110001
100011100
1001000111
10101101
100110
1111111100111010
101111011
1111111100100110
1111110111110101
1111110110000011
1111110101010100
1001000
111000100
1011000100
1111110111
111110111
1101011001
1010010
1111111101100111
1111111010100110
1111110111010101
1111110111111011
1111111100101000
1111111111110111
1111111111110010
1111111111110101
1111111111000000
111101
1100
101101100
100001001
1111111110001010
11011000
11101000
1110001
110111
100101001
1111110101010011
1111101111110011
1111111000010010
101101001
1101100111
1111100010
1000100001
1111111111101001
11001
11100111
1111111010011010
1111101100010010
1111101111000011
1111111011101100
1111111111101101
1111111111011010
11001
111
1111111111110101
1111111100001101
100011100
10110101
1001111
1000001110
1111000000
110001110
11011
1111111011010110
1111110100010010
1111101001010100
1111100110100101
1011000100
11010000011
1101011110
110100111
1000101
1111111100001000
1111111101100101
1111111000110111
1111110111111111
1111110111010110
1111111110100011
1111111110100000
100010
10101
1111111111011001
1111111111010100
1111111110010001
10010111
10100101
100000
1111111101011100
1111111110100000
1111111001000001
1111101111011111
1111101100001100
1111100110101011
1111101011010001
1111110110010010
10000111100
10110000001
10001000100
11111110
11101000
1111111111011010
1111111110000011
1111111101101010
1111111000111100
1111111011110000
1000
1111111111111110
11001
100000
1111111111101111
1111111110010110
1111111110111011
11101
1111111101000000
1111111010111101
1111110000001001
1111101111010100
1111110111001010
1111111001110110
1111110000100101
1111110011111101
1111111111011011
100100000
10000011100
1101100101
1010110001
1011011011
110001
10010111
1111111001010010
1111111010110101
1111111001101011
1111111110010011
101010
100111
1111111111110110
1111111111110100
10110
1111111110000010
1111111111011001
11000
1111111111011101
1111111011000001
1111110011000110
1111101110010010
1111110011000001
1101101
1111111110100111
1111111110110110
101000000
111000110
111011100
1110010101
111010110
111000010
11101100
1111111110010001
1111111101011011
1111111100000111
1111111101011111
1111111110111111
1011
0
100000
1111111111010011
1111111111111000
1111111110110011
111010
1111011
1111111111010011
1111111101101111
1111111000111101
1110000
1111111001010000
1111111000111001
1111111011111111
1111111010000101
10001000
100000
110
1010101011
1000110100
100011001
101110100
10010100
100101
1111111100100110
1111111100111110
1111111100011111
1111111111100100
1111111111010000
1111111111101001
1111111111111000
10001
1111111111001011
1111111111110100
1000010
1111111111101110
1111111110000011
1111111111010001
11000100
11111111
1111111001000010
11110111
1011000
1111111011101101
111110010
1111111110111000
11000110
11111001
1111111111010010
110001011
11110100
111110001
1111111111110000
1001011
110
1111111111111011
100000
1111111111110001
1111111111111001
1111111111100111
10011
1111111111000000
1000111
1101010
1111111011010010
1111111101101001
1111111111001110
1111111110011011
1111111100111110
1111111111010110
1111111101000110
1101
1111110111001000
1111111101101000
1111111111111000
1111111101100010
10010
10100011
1111111101011011
1111111111011100
101111
111101
1111111110111110
1111111110100100
1011000
10
110110
1111111111100001
1111
1000101
1111111110100110
1111111100101101
1111110111100001
1111111110000010
1111111001100000
1111111101111111
1111110111001000
10010101
1101000
11110101
1111111001010101
1111111110011001
1111111001100101
1111111101010001
1111111111101101
1111111110101011
1111111100110110
1111111011101100
1111111111000001
1111111111110011
1011000
0
0
1111111111110111
1111111111110011
11
1010001
1101100
1111111011101100
1111111000100000
1111111001000100
1111111011010111
1111110111001111
1111110011100110
1111110100010100
1111111010001011
1111111011101001
101010
1111110110000001
1111111001010001
1111110001110111
1111110110101000
1111111100010110
1011
1111111010010101
1111111011111110
1111111110001010
1111100
1111111110010001
11000
10101
1111111111111011
0
1111111111011101
10010
101000110
1111111100110001
1111111000101010
1111111001001111
1111111110001000
1111111101000001
1111111110011001
100101
10101010
1111111111010110
100111
1111110001100111
1111111010101110
1111110011110010
1111111111001001
101001011
11001101
1111111100110010
1111011
1000111
10110111
1111111101001100
11
1111111111100001
110011
110
1111111111010000
1111111111100000
111001011
110011
1111110111110101
1111111001111000
110101
1111111111110110
101101110
1111111010001001
1111111111001101
1111111010001101
10110100
1111110101110101
1111111000111001
1001001111
1001111
100100111
1111111111100000
10011100
100010
1111111011110011
1111111110111110
1111111101110100
1110100
110110
110
1111111111111110
1111111111111100
1111111111010001
100001010
1101010
1111110010010000
1111111101111110
100110
10101111
1111111101001110
1000
10110011
1101011
10001100
1111111111001111
101100101
101101011
1111111110011001
11111110
1111111101100000
11000111
1111111101011001
1111111010101111
1111111010010110
1111111111011011
1100000
1100
1111111111010100
10011
1110
1111111111111110
1000111
1110011
11000100
1111111111011101
10000011
1111111110011011
1111111101100110
1000000100
1111110111001011
1011001
1111111101101011
1111111100100110
1111111001001100
1111111001110111
10111000
1010111
1011100
111010
1111111111000010
1111111100100100
1111111100001100
1011000
1111111111111101
100011
10110
1111111111011011
1000101
11011
1001000
100001
10000101010
101111011
10000011
1111111111000101
1111111110101111
1111111001101010
1111111100000011
1111110101110011
101110
110101101
1111111100110010
10000110
11100001
1000111
110011001
1000111
1111111110101001
1111111010011100
1111111101111110
1111111110110001
101
1111111111111011
11110
1111111111110011
1111111111110100
1111111111111111
1000110
11001010
1011101011
110110010
11101000
1111111100111110
11010100
1111111101010010
1111111111111011
1001011001
1111111110110101
1111111011011110
1111111101001101
1111111100011000
1111111100101011
111101001
11101
1100000
1111111110100100
1111111111001100
1111111101100100
1111111111100010
10
1101011
10000
110100
1111111111111001
1111111110111111
1001100
100001111
101110010
1000011011
10001000
1111111011110101
1001110111
11110100
1111111110110001
1111111101110111
1111111111000001
101111111
10000001
1111111100110011
1110110
1111111111111011
1111111100100111
11010111
1110110
1110
1111111110000111
110010
1111111111110111
10000
1
1111111111111001
1
100
100000
1
1111111111111001
101
1100101
101111011
1010011001
11111000
1010101
1111111111101100
1111111111001000
1010001
1111111010110001
1111111000101111
1111111011000011
1111111111011011
1111111100011000
1111111101101010
1111111101011001
1111111110100010
1111111111011100
110001
11101
1111111111000100
100000
1111111111111000
1111111111110100
100010
1111111111101011
1111111110101010
1111111111011111
1111111110100000
1111111110110010
1111111110010001
1111111110011100
1111111100110000
1111111110001000
1111111011001011
1111111011101001
1111111111000111
1111111011011010
1111111011111111
1111111100001101
1111111011001010
1111111101001000
1111111100011100
1111111101010101
101
1111
101110
1111111111111101
1111111111010011
1111111111110001
1111111111110011
110
11000
1011
10110
1111111111011011
110
11100
10010
10100
1111111111010110
1111111110100110
1100101
1000
10
1111111111110111
1111111111110010
1111111111001100
1111111110000000
1111111111111110
1111111111110110
1111111111100110
1111111111101010
1110
101
0
1111
1111111111100011
