1001110
1111111111011000
1111111111110011
0
1111111111100100
1010
1111111111100111
1111111111100111
1111111111100000
1111111111100001
1111111111101010
101000
1111111111110001
1111111111110100
101
1001000
110000
10011
1111111111111111
1000010
11
1101
10010
11010
11
1110
1111111111101010
1111111111111111
1111111111111111
1111111110111001
110
110110
1111111111101111
1111111111100000
1001101
1111111111111111
1111111110111110
101101
1111111111111000
1111
10110
100001
1111111111011111
1111111101100111
10000
1000
10001
1100001
1001000
101000
10100
1000101
111100
101111
1111111111110111
1111111111001111
1111
1111111111101011
1111111111011101
1111111111110000
100000
110
1111111111111100
1111
1111111111011010
110011
1111000
10001100
1111111101110100
1010111
111011
1111111101101101
1111111110110010
1111111101100001
1111111101101101
1111111111001101
1111011
111011
10111
1111111111100011
10001
1001101
1000000
1111
1111111111111100
1111111111011011
100001
11111
101
101011
111111
1010011
100000110
101000110
10101011
1111111110110011
1111111110111010
11111100
11111001
1111111101101010
1111111101111000
1111111010111000
1111111010001100
1111111101110000
1111001
10011000
1111111111000100
1111111100001100
1000011
11101
0
1111111111110100
1111111111011011
1111111111000011
1111111111100100
1101
110
1111111111111101
10010111
1010100
100000111
11101
1111111110001000
0
1111111110101110
1111111000010111
1111111011011101
1111111111100100
11010
1111111100000100
1111111111100100
1111111111110110
1111111101010011
10000111
1111111111110001
1111111100101010
1111111110001111
1111110
100
11111
10111
1101
0
1111111110111010
1111111111101111
1111111101010100
1111111110011101
1111111111000111
1111111101011100
1111111100100101
1111111001101001
1111110101101111
1111101111100111
1111110111110101
1111111000001111
1111110111010110
1111111101100111
1111111010010001
1111111101100011
1111111101111000
1111111100100100
1111111101101101
1111111100100000
1111111010100111
1111111100000000
101
101000
10000
1111111111000111
100110
11111
1111111101011010
100100
1111111110111011
1001100
1111111
1000100000
1101010100
101101110
10001010
1111111111011110
1111111110111101
1111110110011000
111001
100101111
1111111110010000
1111111011101111
1111111100100010
1111111010010011
111101
1111111101000011
1111111100000010
1111111100000000
1111111111001111
1111111111110001
11010
1001
11000
1111111111100001
100111
100001010
10110110
101000110
111110101
1001000111
1010111011
110110101
11000100
11001111
110101010
1000000101
10101000
11000010
110111
1111111001101101
1111111101100000
1111111111001101
1111111001111111
10101
1111111011110011
1111111010001101
1111111110111100
100110
1111111111111010
1010001
10111
0
1110
101111111
1000000011
11100111
1010100110
1100101010
11000011
101101110
1011110111
10111111
1011100110
1101101110
11101110
1011101
1111111111001100
1111111110100100
1111111101110001
1111111100101111
1111111000101100
1111111110111001
1111111010010110
1111110011110100
1111111100010110
1111111111001110
101
100010
111
10010
100
100100011
1001110000
111001010
100101101
1000111100
101111010
1011011011
1010110010
101110010
10111000
100111000
10011
1111111111000110
11100001
1111111001110110
1111111111101101
1111111011010010
1111111011001110
100110001
1111111011101010
1111111001101011
1111111101111111
1111111111010111
1111111111110111
1111111111100100
1111111111101000
1111111110101111
1111111110101101
100100
1010111010
1000110111
101110111
10010000111
1110111100
1010000101
101010011
1111111101010111
1111111111010000
1111111101010110
1111111101101000
11110011
100000111
111101100
11100
1111111101110111
1101101
10010010
1111111001000010
1111111101001101
100101
1011001
111110
10001
1111111111101110
1111111111010000
1111111101111011
1111111101110001
1111111111100001
1111111111011010
1111110110101110
111110
1111111011010010
1111101111111010
1111101111000110
1111101001100000
1111101101110101
1111101101001010
1111110100101101
1111111111000100
1111111110111100
1111111101011100
1111111111010110
1111111111110101
11110100
10110
1111111011110011
1111111101101000
1111111110101000
1111111111101000
11
1111111111100001
10100
100100
1111111011010100
1111111010111000
1111111001011000
1111110010111010
1111101001101100
1111100001001001
1111010110101100
1111011100101010
1111100010001110
1111101000000110
1111111011000101
1111110110100100
100000001
111100001
11001011
1111111111011100
10100010
1111111100100100
1111111110010101
1111111110010010
1111111010000000
1101010
101001100
11000100
1111111111101100
1111111111110000
1111111111110110
100001
1111111100001000
1111110011110001
1111101111000000
1111100111110111
1111011110000100
1111100000100101
1111100100100010
1111110101010101
1111010
100000011
110000111
1111111011001000
1111111010000110
1111111011100010
11101110
1111111111011110
1111111111110100
1111111011010011
110011000
10001
100101000
1001111110
101100110
1010100
1111111111010101
10
1111111111100101
11000
1111111101000010
1111110101010011
1111101011010001
1111101100011010
1111110001000110
1111110110011011
101100111
1000100000
111001011
101110000
1000101
10011
11110010
11100101
111100111
1101011000
1000000100
1111111101010101
101010000
10101001
111011110
110000101
1111111111101001
100010100
100000
101000
1111111111100100
1111111111101100
1111111110101001
1111111001010110
1111110011111110
1111111011101101
1111111100100110
1111111101001000
1111111111010110
1111111101001001
1001010110
110100110
1111111110011010
1111111100110111
1001001100
1111111101100000
1010001
111100000
11001011
111101011
100100100
11101000
11000100
11011001
1111111111010110
11110001
1001
1110
1010110
11001
1111111111100010
1111111100011101
1111111101110110
1011010011
1100010110
101011000
10000101
100111000
1100011
1111111101011110
1111111110000010
11110010
1001110011
1000101100
110011001
1010110010
100110100
11110001
1001101101
1100011
110000101
1010111100
100001101
11010100
0
100000
1111111110100110
10
1111111101111000
1110100
1111111111101110
1000001100
100010111
1010
1111111111111001
1111111110111001
1111100
1001011110
100110010
11
1010100100
110110001
1111110111
1110111011
11
1111111110100001
111111001
11011101
100110000
110111101
110110001
10000110
10
0
10110
101001
1111101
111001010
10010100
1111111101110101
1001000
1001000
1111111110100100
1111111110110010
110011
101111010
1000001
1111111100010110
1111111111010100
111111100
1000101111
1001111100
11001000
1111111101010010
1001010
1111111110110011
1111111110101101
101000100
100101110
1001
1111111111101010
1111111111111101
101101
11111
11011010
1011010111
100111101
11000100
100110011
100000100
101011
1111111011010100
1111111001001000
1111111101101001
1111111010111101
101010001
100100000
1000001110
10011000
1000000110
101101101
101011100
10011001
1000110
1111111100110101
1111111
101101101
111110
1111111111101011
10000
10000
1111111111100001
110010100
111011100
101111010
1111010
101111100
11111010
10000100
1111111111001000
1111111011111110
1111111011000110
1111111000101011
1111111110011110
1111111010111111
1111111110000000
1111111010000100
1111111100000110
1111111111010110
11100111
1111111110010100
1111111000100110
1111111000111001
1111111010111101
111100
1111111111100100
11110
11100
110001
111100
10110101
10011110
1010010
1111111100011110
111
111100001
1111111100000111
1111111011111010
1111111100010111
10101100
1111111001111111
1111111100000010
1111111101011011
1111111010111111
1111111000001101
1111111011111110
1111111000010011
1111110111100110
1111111101001011
1111110011110001
1111110101101000
1111111011001001
1111111110010101
1111111111101011
110
110000
1111111111111010
1111111111111111
1111111100011011
10011101
100111111
1111110110000101
1111111011001100
1111111111000111
1111111010010000
100100001
1111111111001110
1111111100111100
1111111010000000
1111111010001111
1111111111100111
110110
1111111010101111
1111110110000100
1111110100100101
1111110011100100
1111110111010100
1111110101100010
1111111000101100
1111111100100011
1111111110001001
1111111111101101
10001
1111111111111111
1111111111110011
1111111111110110
1111111101100001
10011011
1101100
1111111110100111
11010001
1111111101011001
1111111101011011
1111111011111011
111100111
10000001
101000110
1111111010011011
1111110111110101
1111111101000111
1111110101101101
1111111000101010
1111101111100001
1111110000011010
1111111000011101
1111111000010100
1111110111010000
1111111110001100
1111111110011010
1111111111110001
1111111111100011
1111111111010111
111011
101111
1
100100000
100001001
1001000
1111111111101011
1111111101111101
10000010
1111111011010101
1111111101010110
1111111010011011
1111111100011100
11011101
101010
1111111111100111
11010111
1111111001011011
1111110100111110
1111111000110001
1111111001010011
1111111001010110
1111111001010010
1111111110111101
110010
1111111111100101
100010
1111111111110100
110100
10001
101010
1110000
11001100
100011110
1000100000
1111111111011110
1111111100010111
11101010
10011111
111100111
101010010
101011100
1010011011
1100110
1111111100001111
1111111101110010
1111111110100100
1111111101010001
1111111010110000
1111111110000010
1111111110000010
1111111101100101
101101
1111111111011111
10011
101
1111111111101101
1111111111111001
1111111111100100
1111111111101001
1111111110010000
1111111110011101
1111111111110010
1111111110100110
1111111101001111
1111100
100010110
100111
1111111111001010
1111111110110111
1111111101011100
1110111
1111111110001001
1101
1110011
11010
11110
1111101
10
1111111111111010
1111111111100100
11101
110010
101110
1111111111011101
1000
1110
100010
11001
1111111111010100
1010
10010
11010
1111111111010111
11011
1111111111111011
1111111110111001
11001
1111111111111100
1111111111001010
11110
1111111111111000
110101
1111111111001111
1111111110110111
1111111111001100
1000111
1111111111100000
1111111111110011
1111111111010101
1111111111111010
