1111111111010111
101
100
1101
1111111111110011
1111111110111111
100000
1111111111100011
1111111111100001
1111111111101000
1111111111001101
11
110
1100
1001010
1001
1010
11010
1111111111011101
110001
1111111111111010
0
1111111111100111
1001
111011
1111111111111101
1111111111101001
10100
1111111111011010
1111111111001101
1101
0
1111111111110010
1111111111010101
0
1111111111101011
10
10000
1000
1011110
100100
10001
110111
100001
1110111
1000000
1111111111101011
1111
1111111111111101
1111111111110001
101001
1111111111110101
100
1111111111011010
10
1111111111100110
0
100100
100
10
11010
1111111111100011
1010001
11110
1110100
10111001
1101011
10101100
11010110
10111000
100110100
11011000
1111111111111010
1111111110110111
1111111111101010
1111111111110110
11001
11111
1111111111111110
101011
1111111111111100
100
1001011
1111111111101011
1000
111
1
10001
101
110100
100000
1
10110110
1010000010
101100100
111101100
111010111
110011101
1111111111100101
1111111110010101
1111111101000010
1111111010000111
1111111100000100
1111111011011001
1111111101011011
11010
1101011
10000
101010
111
1111111111101000
11
11110
101101
1111111111010011
101000
11100
110
1111111100100011
101011
10010101
100101011
1111111111101110
1101101
1000101000
1110010010
1001000010
1111110110010110
1111110110110010
1111110101100000
1111111011001000
1111111011110101
1111111010101101
1111111100100111
1111111111101000
1111111111001101
1111111110111001
1111111111111000
1110
10010
1111111111011011
1111111111101000
1111111111101111
11100
10111010
1111010
1111001
11110110
1011110101
1101000001
1010110010
101110110
1001101
1111110011110001
1111101011001110
1111101100001000
1011000
1011111
1111111101111101
1111111110010000
1111111100001110
1111111100001100
1111111000010011
1111111010000110
1111111100101011
1111111110000110
1111111110111110
1111111111111011
1
1111111111111101
1111111111101000
101100
1110111
110101
110000110
1001100011
10000000011
1111111100
111010100
11100100
1111111111011011
1111101100011101
1111011010100100
1111011111110000
1111111011001111
111110
1101001101
101010100
11000110
100011001
1111111110001111
1111111101101001
1111111000101011
1111111100010011
1111111110110100
1111111111111110
1111111111110101
101011
1010110
1001110
100000010
110100100
110001001
1001011101
100000110
100000100
101001011
100111100
1010111
1111101110001110
1111010011011110
1111110010010100
1001010011
10110101
1101000011
1101010100
11111100
1111111111100001
10100
1111111011100100
1111111101100011
1111111111010000
1111111111100100
10011
1111111111111110
100110
11001001
10010001
111110001
1011001001
110000011
1000101111
110010101
1010011100
1100111110
1000101011
10011001
1111110000011101
1111011000011100
1111110111011111
1101100001
110100100
111010
1010111
1000
1011110
10111011
10110111
1111111100011101
1111111110101100
1111111100100010
1111111111001001
1111111111100100
1000010
10011001
100000110
110100010
1000011101
1111000
100110
100100001
1001000100
1111000000
10001111011
101010100
1111011000111101
1111011001100001
111100110
10001111110
101000000
10011010
1001100110
1000110111
1010001001
10010111
10011110
1111111110101010
1111111011100111
1111111100111010
10010
10001
1001101
0
11000000
11111110
1001010100
110111
101110110
1010001101
100001101
110010011
10000000011
101010001
1111011100100000
1111100101011101
110010000
100101
1001110000
101010111
11001100
1101101
100011111
100101000
11
100110111
1111111111100000
1111111101101011
1111111110111000
11000
1111
10100100
100101001
1011011
1000010100
101111
1111111110001101
1111110111100101
11000
100111010
10001111111
1111111111100000
1111100001100110
1111111110001111
100100011
110100110
111111110
1010011110
1111111110010010
1001000
1000011100
1000100000
100010
1001100
100111
1111111110111011
1111111111110110
1111111111110011
101100
11011000
110101101
1111111111100101
100101101
101110
1111111011010011
1111111101101111
1000011
1001101110
1110100000
1111110000101001
1111100011101000
110011
101101000
100100101
11111111
10000000111
1010110
11011100
111101000
1100001111
110101001
11111000
1111110
100011
1000
1111111111111110
110
10000111
10010110
10001000
11110101
1000110010
1111111101101011
101101101
1111111101011001
101001101
1111111101100001
1111101110000010
1111101110110010
1111111101001000
1111111010111101
1111111010011110
100001000
1001100011
1000
10111010
110001011
1101001100
111111110
1001011100
1101010
1111101
1010
11011
1111111111101111
1011110
1111111111101010
110110001
10000001101
101110011
1111000
10110111
110001001
1000111100
1111111111001001
1111111011100000
1111111000100101
10010000
1100000
1111110111001010
10100011
1111111111011100
1000100010
101101001
1111111100001001
100100001
101000111
100001011
1111111111111101
1111111111101111
110001
111111
1111111111111101
10001011
1101110
10100111
10101100
1001011011
1010111011
10011101
100000011
1111111100100000
1111111001001110
1111111100000010
1111111100100010
1000110
1111111010011011
1111111101110010
11101110
1111111101111010
101001011
1111111110010000
1111111010110010
1000110100
10011111
1111111001000101
110100
10001001
1111111111110111
10010
1111111111011110
110010
10111
1111111011101111
1111111000011111
1000101101
1000010110
1111111011111110
11011
1010011
1111110101011111
1111111001010101
1111111010101100
1111111111000010
1111111110001001
10001
1111110111101100
10101011
1111111011110111
1111110111011111
1111111111010111
1111111100101010
1111111111010101
1111111101111001
100100110
1111110
110111
1111111111100011
11010
101111
1111111101011000
1111111100101010
1111111100101000
10001
1111111100001011
1111111010001001
1111
1111111011111110
1111111010100100
1111111000001001
1111111111001001
101100
1111111000100101
1111111011111110
1111111100011101
111011111
1111111101111111
1111111110001001
1011100
1111111110101100
100101111
100101101
11011110
101101
10110
1111111111101000
1111111111111110
1
1111111101111000
1111111101100000
1111111101110000
1111111010100011
1111111000111001
1111111011111000
1111111101101000
1111111011100001
1111111001001001
1111111011001010
11000111
1000000001
1111110101001001
1111111011101011
11111110
1111111110111111
1111111101101010
10010100
11101
1111111111101000
10001110
100011000
1111111110011011
101001
1111111111111100
1000
1111111111110010
1111111111100011
1111111110101110
1111111101001111
1111111110010110
11
1111111010011011
1111111100100010
1111111101111000
1111111000010111
1111110101110000
1111110000100101
101001101
110001110
1111111111111011
1111110100000100
10000111
101101
1111111011110011
10001011
10011000
1111111110001010
1111111111110010
1111111111110110
1111111100001011
1111111110111010
1000
1100000
1111111111110110
1111111111110011
1111111101101111
1111111011111000
1111111100000001
1111111111000010
1001100
1111111001101011
1111111010000000
1111110111010101
1111111000101010
1111111100101011
1111111110000110
1111111111001111
100100111
1111111100000111
1001001010
100111101
1111111001001101
1111111100001100
1111111100111111
1111111001100011
1111111100100100
1001100
1111111110101011
1111111111111110
1111111111101010
1111111111111010
10001
1111111111000000
1111111110010100
1111111101101110
100001
1111111111100111
1111111000010000
1111111001011011
1111111001001011
1111111101000001
11101011
1111111110000111
11111100
1011001
1000111100
11010101
1100000
1111111100001000
1111111010000011
11001101
101001
1111111111001101
1111111111011100
101000
10110
100101
1
10000
1111111111101110
1111111111011100
1111111111001000
1111111101000110
1111111111010011
1111111111001010
1111111100100110
1111111010101011
1111111000000101
1111111011010111
1111111110111101
1111111100110100
1100110
1111110111010101
1111010
1111111001010001
1111110110011111
1111111010000001
1101010
1111111
1001100
1001000
1111111010110010
1111111100110001
1111111110100000
1100
1111111111000111
1111111111111011
1111111111101110
1111111111101111
110
1111111111111100
100101
11100000
1100110
1111111110110010
1111111011110100
1111111101101100
1111111000100011
1111111001011011
101011000
11100011
1111111011011111
1111111011101111
10001110
1111111001001110
1111111100110000
1111111110001111
11101
1111111110101100
1111111011010011
1111111100011001
1111111111010011
1110
1111111111111111
11101
1111111110111011
1111111111110111
100110
1100000
11000110
11100001
10010011
1111111101000001
1111111001110100
1111111101100011
1111111100010011
1111111100010011
1001100100
100000111
1111111111010100
1010010110
10000010110
11011001
101100
1111111000010101
1111111111111010
1111010
1111111101111010
1111111101110011
11010
1000101
1111111111110110
1100
1010
1111111111100011
111001
1111111110000110
1111111101110111
1111111110011011
1111111110010010
1111111110001000
1111111110101001
1111111111000101
100011101
111100000
10000100
1111111111110000
11010100
10111011
1001110
101000011
1111111011000110
1111111100000000
1111111110100101
1111111110001110
1100
11
0
110110
1111111111110111
1111111111110010
1111111110111111
110000
10111
1111111111010100
1111111111110010
1111111101010001
1111111100001101
1111111110011111
10
1111111000000100
1111110111110000
1111110111011001
1111110001110100
1111111011100001
1111111001001010
1111111001101101
1111111101010101
1111111010100101
1111111101010111
1111111001100110
1111111001001100
1111111100011000
1111111111011110
10011
1111111111100111
10101
100000
110
10011
10110
100011
100100
110110
101
1111111110001111
1111111110000001
110010
10111000
101011
1111111111011100
1111111111101101
1111111111011110
1111111110100101
1111111111111111
1111111111111011
11101
1001100
101011
1000010
1111111111101010
1111111111110111
1111111111100011
1000
1111111111011100
1111111111110111
