1011
1111111111101100
10001
10111
1111111111110001
1111111111110000
1111111111000001
1111111111101100
1001010
111
1111111111111111
11010
1
101101
1100
1111111111001100
1111111111110110
1111111111111000
1110
1111111111110000
1111111111110010
1111111111110011
1111111111111010
1111111111010111
111100
100010
1111111111110001
1111111111011001
1111111111110011
111
101101
10
1111
1111111111111111
1111111111110001
1
1111111111001101
110
1111111111101001
11001
1111111111110100
1111111111111100
0
10100
0
1100
1010010
111111
1111111111110101
1001
1111111111100111
1111111111100000
1010
1111111111011110
11001
1111111111101111
100100
1111111111101011
1011
1111111111101001
1111111111111000
1111
1111111111010110
10
100
1111111111010100
11110
1111111111101100
10011
1011
1001101
0
1111111110110110
1111111111001001
1111111111110111
11011
1111111111011111
110001
100100
10111
0
1111111111110011
0
1111111111111001
1111111111010110
10
11110
1111111110111001
0
1111111111100100
1111111111110100
1111111111110001
1111111101010011
1111111100111100
1111111101111010
1111111110010001
1111111110011010
11010
1111111110111001
1111111100010010
1111111110000100
1111111110111000
1111111100100100
1111111100111001
1111111101000111
1111111101100001
1111111110011010
1111111111001110
101111
10001
100110
0
1111111111101101
10100
11010
1100
1111111111011111
1111111111000001
1111
1111111111000111
1111111110010111
1111111111000111
11000
1111111111110111
1111111101000111
10111
1111111101101011
1111111011010010
1111111011100010
1111111110100011
1111111110000110
1111111110000110
1111111101101000
1111111011011110
1111111110101101
1111111111101010
1111111110010111
10001
1111111111100100
1111111111100011
0
100110
1111111111100110
11
101001
1111111111010110
1111111110000111
1111111101001011
1111111110111000
1001010
10000100
10000101
100111110
100001100
1010011
1111111011101101
1111111010001011
1111111010110011
1111111000100111
1111111101010000
1010011
101111
1111111111001010
11001
1111111111001100
1111111111110001
0
1111111111001101
1111111111111010
1111111111111011
1111111111110011
100011
1111111111001110
1111111011010111
1111111100100010
1111111010101111
1111111010001101
1011000
110110
101001101
110001
1010100
100010110
1111111011101000
1111111000011111
1111111010111101
1111111110001110
1111111111000010
11011100
10110101
1111111111111010
1111111111101001
1111111111101110
1111111101010101
1111111110110101
1111111110111000
11100
1111111111110000
1111111111100100
1111111111000110
1111111101001100
1111111100010100
1111111100111001
1111111000110100
1111110110101101
1111111110101001
11100011
111010101
1001100000
1001101001
10011101
1111111001001110
1111111011010110
1111111101110000
1111111011111111
110000111
10001000
1111111110100100
1111111110001100
10001100
100111
1111111110010110
1111111110001100
1010001
1111111111110000
1
10000
1111111111010101
1111111110111011
1111111110111000
1111111110100101
1111111100011010
1111111100111010
1111111101011110
11001
101000101
110110110
1000100
1111111111000001
1111111001001110
1111111100000000
1111111111011010
111001100
1000111101
100100110
11101010
11011101
111000
1111111110101000
1111111101111000
1111111111000101
1111111111001100
11000
110010
1111111111100010
10101
1111111110000100
1111111110101101
111
10011
1111111111010101
1111111110101100
100100010
100110111
10000100
110110111
101010
1111110100110101
1111110111101100
1111111110000010
1000010100
1010010101
111010011
101011000
100011100
11010011
1111111110011101
1111111110000011
1111111110110011
1111111111001100
1111111110111010
1111111111010010
111001
1111111110100101
1111111101101110
10001010
10011110
1010010
1010001
1111111100110011
1111111101010011
1111111111101011
10
1111111111101101
1111111001100100
1111110100100011
1111111001111011
1000101
1011000
1000100101
10110001
10100011
10100100
1010000
1111111110110001
1010100
1111111111111001
101110
1111111111011101
1111111111111101
10010
101010
1111111111110010
10110000
101101011
10000001
1000001
1111111010011111
11100
1111111110011101
11110111
1111111101011100
1111110110110111
1111111000011001
101111
10111100
1111111110001101
110011110
101010001
100000001
101100001
11001000
1111111110011111
1111111110111000
1001
11001
10110
1001
11000
1011010
110000011
101101100
100100011
1011101
1111011
1001000
100011
1111111010001100
1111111100111100
1111111101100101
1111111101101100
1111111011110101
1111111100110100
1111111100100100
100
10110110
101011111
11110111
11111011
100001111
101000
1011010
1111111110101001
100
100010
1111111111011110
0
1010111
110001000
101000010
11100011
100010100
11110
100
1001
1111110101110001
1111111011011011
10001101
10100011
1111111100101101
1111110100000001
1111110100101001
1111111000101011
1111111101110100
1111111100001000
10100010
110001110
110101
10001
10100
1111111111111100
0
1111111111100111
1111111111110110
1111111111100001
100110
101011001
100001111
101100100
11110001
1111111101111011
1111111011101111
1111110111111011
1111110111000011
1110
11011110
100110001
1111111111101111
1111110100001010
1111101111010011
1111111001100011
1111111111010111
1111111110011000
11001110
110000001
101010001
1001111
10110
101000
1111111111110100
1111111110111011
101100
1111111111010010
10100
1011011
11101010
1010101
1111111101001110
1111111100000100
1111111100100001
1111111100010011
1111111000110110
1111111111101111
10010
110010010
1111111110001100
1111110100110000
1111101101100111
1111110101010011
1111
11101001
1000100001
1001001010
111100
1111111100111100
1111111111011111
1000010
1111111111001010
11101
1
1110
1111111111100101
1111111110111010
1010001
100000110
1111111101010010
1111111010011111
1111111011111100
1111111100101100
1111111011011110
1111111011010101
11001110
100011100
1111111001110011
1111110010101011
1111101100100111
1111111001110011
11
1000111101
101010000
1011111
1111111010001101
1111111111011100
1001000
110
10011
1111111111111101
1111111111111110
1111111111100011
1111111110010011
1111111111111101
1111111101010101
1111111111001101
11101
1111111110011101
1111111101011010
1111111110111111
1111111111001001
10001000
10001000
1111111110101000
1111110101100000
1111110010001110
1111110000000100
1111111110000101
110011101
111010111
10010001
1111111011010011
1111111100100010
11011
1010010
1110
0
1111111111011001
10001
1111111110111101
1111111110010001
1111111111011110
1111111100000110
11011111
10111001
1111111111101011
100110001
1010110
1111111111011111
110001
111110
1111111010011010
1111110111101001
1111111001001111
1111111111010111
110110111
1100100001
1100111010
100000011
1101110
1111111101111010
1111111111101010
10011
1011001
1101
10
1001
11000
1111111111001011
1111111111001010
1111111011010010
11110011
1010101
10100010
11011100
10011010
10011101
10100010
1111111100001111
1111111000011110
1111111010010000
110110
11000011
111101110
110011010
110110010
100111
101000010
1111111101110100
1001111
1010110
11101
1111111111101011
10001
1111111111111000
1111111111101110
100100
10001011
1111111110000101
10010
1111111111111111
11111100
10111010
1111111111111100
1111111010000000
1111111100011110
1111110110100110
1111110011000000
1111111100110111
10111111
100011100
100100111
1111111111101110
1111111100000100
10011011
1101100
110011
100011000
1111111111111110
1111111111101011
100011
100110
0
1010
101001
1111100
10000100
1111111111000001
1001110
11111
1111111100010000
1111111011100010
1111111010011110
1111111111100111
1111111100010011
1111111011001000
1111111101111011
1111111101110100
1
1111111100000010
101001
1111111110100110
1111111110011101
1010010
10100011
101100001
10100
0
100111
11010
1111111111110111
1111111111111101
110001
1011010
110000011
101000
10101011
100001011
1111111101101000
1111111001110000
1011000
11111101
1111111101100100
1111111011000111
101111
1111111111111111
110110100
110001000
110001001
10111111
100011
11000110
10011001
10100000
10000110
1111111111110000
100001
1111111111101101
1111111111111101
1111111111001111
1111111111101100
1111111111111011
11100011
10101101
1111111111000100
1111111110101100
1111111011011011
1111111100111100
1111111100001100
1111111100011011
1111111111000010
1111111100000111
1111111110100100
1101100
110010001
10101101
100100001
11010011
1001100
101011
111100
11011101
10110
1111111111111101
10101
110001
100001
1010001
11100
1111111111111011
10111011
1101100
100
11010
1100000
1111100
10001010
1111111110011011
1111111101011110
1111111101001010
1111111110000110
1111111110001011
11100
1111111110100010
1111111111000010
1011111
11000000
11100001
10101100
1111111111101111
1111111111101101
101101
1111111111100010
101010
11001
10110
1111111111110011
1111111111111000
1111111111010110
1011
1001100
10000010
111100
1111111110010010
1111111111001001
1111111110001001
1111111101100000
1111111100000111
1111111000000011
1111111000110100
1111111001010010
1111111100101000
1111111110100111
1001000
1001111
1010111
1110011
1111111111111110
0
11
1110
101001
1111111111111101
100010
1000001
1111111111110011
0
10011
1011110
10011
111
11010
1111111111110101
101001
100010
101000
1111111110100100
1111111101111100
1111111111011100
11111
111011
1010100
1111101
1111111111101011
111
1111
1010111
10
1111111111100100
1111111111101101
101001
1111111111111111
1111111111101111
11
1111111110111100
1111111111000101
1111111111110100
100000
1011
1111111111110000
10
1011
1111111111101101
11
111101
1111111111011010
101111
10111
100
100100
0
1110
1111111111111101
1111111111011110
1000111
1111111111011001
110011
