1111111111011000
1111111111011101
1111111111011011
1111111111110100
1111111111101011
1111111111111011
1111111111111010
1111111111001101
11
10000
10110
10100
1111111111101110
10110
101101
1111111111100111
1111111111001100
100100
1111111111011101
1011
1111111111110101
101
1111111111110111
1111111111011111
110010
1111111110101110
1111111111101010
1111111111110001
1111111111110110
101101
100000
1111111111110110
1111111111101101
1111111111001110
1111111111101110
101100
1111111111101000
101001
10101
1111111111110100
1111111111101100
0
11010
100111
11000
1111111111010111
1111111111001001
1101
100100
100011
1000010
1100
10000
1111111111100000
1111111111011000
1111111111100001
1111111111111010
1111111111111000
1111111111111010
1111111111110010
1111111111100000
1111111111100100
1111111111101110
1111111111010011
1111111111111010
10
1110
1111111111111100
1111111111011010
10110
1011
1111111111101000
100
1111111111011111
1111111111110100
1111111111110001
10110
1111111111111011
1111111111110100
1111111111111001
110
101101
10100
11
1111111111000111
10011
1111111111111001
1011
1111111111110011
101000
1111111111011101
1111111111111100
1111111111010001
1111111111100111
1011
10000
1111111111110000
11111
1
101101
10011
110010
101111
1111111111100011
1111111111011011
1111111111111011
10000
101101
1111111111111010
101011
110
1111111111101000
1111111111100100
1111111111011010
101101
1111111111101001
1111111111111110
1111111111111011
1111111111110101
10110
10100
10101
1001001
1111111111111010
1111111111110000
1111111111011000
11110
1111111111011111
10001
101111
11001
11110
10110
1111111111101111
1111111111111010
1111111111101101
10000
100
1111111111001011
11001
11
1111111111011010
1111111111111100
1111111111011011
1111111111111110
11
1011
100010
1110
1011
101000
1010
1111111111001101
100010
100111
1111111111111100
1111111111101011
1111111110110000
1100010
1111111111111101
10110
1111111111100011
1111111111011101
100
101101
1111111111100001
1101000
1111111111101000
100010
1111111111110101
10010
1111111111100100
1111111111110101
1111111111111011
1111111111100101
1111111111111010
1111111111010101
111010
1111111111110011
1000
1111111111101110
1
1100
10
111
101110
1111111111011100
1111111111011110
1111111111111001
10010
1111
1111111111110010
10100
111
11000
101
10
1111111111101000
1111111110111001
111010
1111111111000101
0
10
1111111111100111
1111111111110010
1001
1111111111111101
1101
1111111111010110
111100
1110
1011
1111111111001100
100111
1111111111011100
111
1111111110111001
1111111111110111
1111111110101111
1111111111101111
1111111111101110
101
11110
10110
1111111111101011
1111111111111001
1111111111100010
1111111111111011
1001
100010
1111111111110111
1110
111
1111111111011011
1010
100010
1111111110100100
1111111111001000
1111111111011110
101111
1111111111011111
1111111111011111
1111111111100011
1111111111111100
111
1111111111100001
1111111111111011
1111111111100101
110111
101
1111111111100100
1111111111010100
1111111111101000
10000
1111111111111000
1
100101
101101
100011
1111111110101001
1111111111100001
1111111111011100
1111111111110100
1111111111111000
11001
1111111111011110
10
0
1111111111000001
1111111111101110
1111111111101101
1111111111011101
1111111111101011
101100
1111111110101110
1111111111011110
110000
1111111111011111
1111111111111110
1111111111010011
10000
1111111111110100
0
1111111111111001
1110
100110
11110
10100
100100
1111111111111010
1100
1111111111011001
111
1111111111111110
100101
11101
1010
1111111111101111
1111111111110010
10001
1111111111100110
1111111111110100
1111111111101000
10011
1111111111100100
1111111111110110
101011
11010
101010
1111111111011001
1111111111110000
1111111111110000
1111111111011000
1100
0
1111111111101010
1111111111010101
1111111110110100
100011
10
1011
1111111111110000
1111111111100010
101
100101
1110
100010
1111111111001100
11000
1111111111100110
110011
1001
11000
1111111111101011
1111
11001
1111111111110000
11000
1111111111111111
1111111111011100
110001
1111111111001111
100011
111
1111111110100011
100010
1111111111101010
1111111111101110
1111111111110001
110101
111
1111111111111101
100110
111001
1111111111000101
100000
110000
100110
101011
111011
100001
1010011
111
1111111111111001
1111111111111010
1111111111011000
10111
11000
10101
10110
1111111111011010
11010
1
1111111111010000
101110
101001
1111111110110101
1111111111111001
1111111111110001
111001
1111111111001110
1111111111011010
1111111111011001
11011
10010
1111111111110000
101
11100
1111111111111110
1111111111011011
111100
111111
110000
1111111111101101
0
1111111111111111
1111111111111001
10001
1111111111001111
11111
1111111111011111
1111111111001101
110101
11
1111111111100010
101
1111111111001011
100111
1111111111111101
1111111111001111
101000
111
1111111111101100
100110
110011
1111111111100100
1111111111110110
11101
11100
1111111111111100
0
1111111111011100
1001
1101
100001
1111111111100011
11001
10101
1101
1111111111011011
1111111111010101
1111111111111011
1111111111101110
1111111111100101
1000
11100
1111111111010001
101010
110111
10011
1111111111000001
11110
1111111111111010
0
1001111
1111111111110111
1111111111101101
1111111111001111
10111
1111111111011110
10100
1111111111101011
1111111111111000
1111111111110000
1111111111111101
100000
1111111111111101
1111111111011111
1111111111100101
11110
1000010
110
1000
101111
1111111111101111
0
1111111111010000
1111111111101101
1111111111011011
10110
1111111111011101
111111
1111111111110000
1111
1111111111110100
1101
100
0
1001
1111
111
100101
1111111111011011
1111111111010101
1111111111111011
1111111111101111
1111111111101100
11111
1111111111110000
11110
1111111111100011
1110
1111111111110010
1111111111111000
1111111111100100
1100
100011
1111111111100000
1111111111100100
1111111111101101
1111111111100101
100110
10
1111111111100101
1111111111111111
1111111111101110
1111111111000010
110000
1111111111100111
10101
1010101
1100
1100
0
1111111111110011
1111111111011101
1111111111100000
1111111111111000
111100
1111111111111000
1111111111110110
1111111111010100
11000
1111111111000000
11111
1111111111010100
1111111111110001
11
100100
10010
1010
1011001
101000
10110
1111111111110111
1010
10
101011
10111
10111
11011
10111
10010
10011
1111111111100111
1111111111111101
1111111111111110
1111111111111000
1111111111101111
1111111111001001
100001
100
1111111111101100
1100
10110
10111
1111111111000010
1001
1111111111100010
100100
1111111111000011
111
1101
1111111111101011
11010
1111111111011011
10010
111
110101
1001111
11101
1111111111011001
101100
1010
11010
1011
111
1111111111100100
1111111111100111
10100
1111111111100011
1100
100011
10000
1011
1111111111111000
1111111111111010
1
10100
10100
1100
0
10110
1110
11111
1111111111011100
1010
1111111111000001
1111111111111101
100001
1111111111011110
1111111111111000
1111111110111111
1
1111111111111110
1111111111110001
1111111111011101
1000
101111
10111
10010
1111111111110100
1111111111101011
11100
11101
101
1111111111111101
1111111111111100
1011
1111111111110000
1011
1100
11000
1111111111100100
100
1111111111111101
1111111111111011
100110
1111111111010100
1111111111111001
1111111111011001
1111111111011111
1111111111101100
100101
110
11100
101011
1111111111011101
1111111111111000
110001
1111111111101001
1111111111110101
1111111111110100
11100
1111111111110010
1111111111000010
1
1111111111000010
0
101
1001
1111111111011001
1111111111110100
11100
11
110000
1111111111111001
0
1010
110110
110
1111111111010011
10
1000011
1111111111101000
1111111111111001
10010
1111111111110000
1111111111000101
1111111111111010
11111
1111111111110111
110101
11001
1111111111100110
1111111111111111
101000
1111111111110101
1111111111110001
10001
10
11010
0
1111111111101011
1111111111101011
1111111111100000
1111111111100101
1111111111110010
11
1111111111010110
1111111111110110
101
1000011
1111111111001001
1
100
1111111111011000
1111111111100110
101010
101100
1111111111010111
1111111111110011
101111
1111111111110100
11111
11001
1111111111101010
110100
10000
1001
1111111111011011
1111111111001001
1111111111111011
1111111110110111
10
10101
10000
11111
1101
1111
101000
101
1111111111111000
11100
1111111111100111
1111111111001001
1100
1010
1111111111101000
100010
1111111111011001
1111111111110110
1111111111110111
1111111111101110
10001
10
1010
1111111111100111
1111111111101110
10100
1111
1111111111111000
1111111111110000
1111111111101100
1111111111100111
1111111111100100
1111111111111110
1111111111100010
11000
1111
1111111111110000
1110
1111111111101101
111011
1001
1111111111101011
1011
1001101
101
1111111111011010
1111111111101110
0
1111111111100111
1111111111110111
11111
1011
10011
1001
1111111111100001
110
1111111111111011
100101
11000
10010
101010
1111111111111011
0
1111111111111011
1000000
10001
10101
1111111111011110
10011
1111111111100100
