1111
1111111111110001
110011
10
100100
1010
10101
1111111111011100
1001
100
1111111111011011
10101
101011
101101
1111111111110110
1111111111101100
1111111111101011
10101
1111111111011011
110001
100
10
1111111111110101
1111111111111111
1111111111111101
10011
11010
1111111111101100
1001
1111111111110110
1111111111100011
100011
1111111110111101
10101
1111111111111101
1110
10110
1111111111001000
1111111111100100
1111111111010111
1111111111110100
1111111111001101
1111
1111111111100000
111
1111111111110111
1110
1111111111111100
111001
1111111111111011
1111
100001
1110
1111111111111110
111
1111111111011001
11111
100001
1111111111011100
11001
1111111111100001
1111111111011100
1111111110111100
1111111111110011
101011
11000
10001
1111111110110111
100
101011
1011
1111111111110001
1111111111111100
101101
100000
1111111111010111
1111111111000111
110
1111111111111000
1111111111110000
1111111111011100
11111
11011
111001
1111111111101011
1111111111110001
1111111111010110
111100
11100
1111111111010100
1101
10
100101
1111111111111001
1100
1111111111100111
11000
101010
1111111111111101
1111111111100101
1111111111011100
10110
111101
1111111111111001
1111111111100111
1111111111110010
1111111111111000
1111111111100101
1111111111001000
1111111111111100
1100
1010100
1111111111011100
11011
100
1111111111111101
1110
1111111111100110
1111111111011100
10001
1111111111001000
101000
1111111111101000
11001
1111111111110111
1111111111001110
1111111111101001
101010
1111111111110010
1111111111101010
1101
1111111111111010
1100
1101
1111111110110010
10001
1111111111110001
110001
1111111111011000
100000
1111111111001101
101000
1111
1111111110111111
101
1111111111110111
10010
11001
1111111111000111
10001
1111111111111110
1111111111100001
100001
110
110111
101111
11010
101011
1010
1111111111110011
1111111111011001
111100
1
1110
1111111111111001
1111111111011111
1001
1111111111011110
101111
1111111111101101
1111111111100101
110
1111111110111110
111011
100010
1111111111101011
110010
10101
1111111111100011
101
1100
1111111111100110
100101
1111111111101100
1111111111000111
1111111111101111
10000
1111111111111101
100001
110111
1111111111001000
1111111111111000
1100
1111111111111110
1111111111100010
101
1111111111101110
1111111111100000
100110
10100
1111111111100100
1111111111100001
11
1111111111100100
1111111111101000
1111111111101011
1111111111111010
1111111111011111
1111111111111001
1111111111110110
11001
1111111111000111
1111111111101101
1111111111111111
100011
111
110
110
101001
1111111110110111
10010
100
111011
1101
101101
1111111110101000
11000
10000
1111111111001101
1111111111111000
1111111111110010
10000
1111111111101011
10011
1111111111100001
1111111111100100
1111111110101010
1111111111100111
101010
1111111111010100
1
1111111111010000
111011
1111111111110100
10001
1111111111010000
1000
1111111111101010
110010
1000011
1111111111011101
10110
1111111111110111
1111111111111000
1111111111101101
1111111111100111
10
1010
1111111111100010
1111111111101001
1111111111110011
11000
1000111
11001
11110
1010001
1111111111000111
11110
10101
1111111111101111
1111111111110010
1
1000
1111111111110110
1111111111100110
1111111111011010
1111111111101011
1111111111111101
1111111111011101
110
1111111111111110
1001
1111111111010111
1111111111100101
1111111111111000
1111111111101100
10111
1111111111111111
1111111111101010
1111111111111010
11001
101001
100
1111111111101110
100001
1111111111101110
1111111111100010
1111111111011011
1111111111111010
1111111111000111
1111111111010100
11101
101011
1111111111111011
1111111111110101
1111111111111111
1111111111111000
1111111111011000
1111111111110110
1111111111001000
1100
1111111111111101
1111111110110011
10100
1111111111111100
1111111111100011
100010
10001
1
1111111111111001
1111111111100111
10000
1111111111111001
1111111111101011
1001011
1111111111011110
111110
1111111111100110
0
100100
1111
10
1111111111001110
1111111110100010
1111111111101101
1111111111001011
1111111111101011
1
1111111111101111
11001
1111111111011100
100010
1111111111110110
1111111111110100
100100
1111111111100011
1111111111101000
11111
10110
1111111111101110
1001
101110
1111111111001111
1111111111011000
101010
1111111110110100
1000
1001
100111
10001
1111111111100111
1111111111101100
11001
11000
11000
1111111111000101
1111111111100110
1111111111001110
1111111110111000
0
1111111111101001
10111
1111111111100001
1111111111111111
11001
1111111111100100
1111111110111101
1101
1111111111100001
1111111111101011
1111111111101101
1111111111010111
110
110001
110010
1111111111011000
100101
1111111111110010
111100
1000
1111111111001010
10000
1111111111011000
1111111111101111
1111111111111000
1111
11101
10
101101
10011
10100
1111111111111010
1111111111011001
101110
11
1111111111100111
1111111111110101
1111111111111101
110000
1011
1111111111101111
1111111111111111
1111111111001010
10100
111110
0
1111111111111111
1111111111110000
1111111111101000
100000
1111111111011001
1111111111110110
1111111111001110
1111111111001100
10011
1111111111101101
1101
1111111111011101
1111111111111010
1111111111111110
10001
1111111111111011
1111111111110111
1010
1111111111110101
110
1111111111100111
1111111111010100
110101
111110
11011
1111111111111001
1111111111101011
10110
0
1011
1111111111011111
1111111111100101
1111111111100001
11001
10000
1111111111101111
100010
101
0
1111111111110000
110
100001
1111111111110100
1000
1111111111110011
10000
1111111111011000
1111111111011001
1111111111110010
1111111111101101
0
1111111111111110
11111
101110
1010
10100
10
1111111111001101
11000
1111111111101110
1111111110101001
1111111111110001
1111111111101011
1111111111111100
1010
11011
10001
1111111111010011
110
11110
1001000
1001011
111
1011
11110
101
0
1010
1111111111101101
1111111111110010
1000110
1111111111101111
1111111111101001
101010
110
1111111111110011
1011
1111111111100100
1111111111101011
110000
10
1111111111111011
10101
1111111111101110
111011
1110
10011
1010
100110
1111111111111011
1111111111101110
1111111111101000
1001
1111111111001000
1111111111110000
1111111111111000
1111111111010101
1111111111111100
1010110
10
11001
101110
1111111111101111
1001
1111111111100110
1111111111111010
1111111111110010
1111111110100010
0
1010
1111111111101111
1111111110110101
10010
1111111110110111
1111111111100101
1111111111010100
1111111111110100
1111111111000010
1111111111111000
1010
1111111111110100
1111111110111000
10110
1111111111110111
1001110
1111111111100010
1101
11000
10111
10
1111111111001010
1111111111100111
1111111111101010
1111111111111111
101
1111111111000000
10
101010
1111111111100101
10101
1111111111111100
111000
10100
1111111111011001
1111111111110011
10000
11001
1111111111100101
101
1111111111111011
101
100110
10101
1111111111101000
1111111111100100
1111
1111111111100110
1111111111011100
1111111111010011
11
1111111111010010
1111111111101000
1111111111010110
11110
11
101
1111111111011010
1111111111011100
1010
1111111111111111
1111111111011100
1
100011
1000
1111111111011000
1111111111101011
1100011
1
100
11000
1000
1111111111111010
1111111111100000
1111111111101011
1111111111110000
1111111111100001
1111111111101110
1000
100001
110100
1111
1111111110110011
1111111111100110
1111111111101111
1111111111101000
111
1111111111100111
100010
111
1111111111101001
100010
1111111111100111
100000
1111111111010110
1111111111111010
1111111111000000
1111111111010001
1111111111100100
11010
1111111111010101
1111111111111110
1000110
1111111111100001
1011
1111111111010111
101101
1111111111001000
1111111111101011
1111111111001010
1111111111011100
0
1111111111001110
1111111111110100
100010
100
11111
1111111111110101
1111111111011111
1000101
1111111111011011
10000
101
1111111111111101
1111111111011111
1111111111011101
1111111111110010
110
100001
1111111111111101
10
1111111111111101
1111111111101111
1111111111010100
1111111111110101
1111111111011101
110011
100
1
1111111111011100
1111111111111110
1101
111001
1111
1111111111100000
1111111111111111
1111111111010111
1111111111110100
111011
1000001
1111111111100010
1111111111111000
101001
101010
1111111111111111
101100
1111
111110
10101
10001
1111111111111011
1111111111100101
100
10111
1111111111111011
1100
1111111111111111
100010
1111111111111101
1111111111011011
11001
11001
1111111111011110
10100
1111111111101111
1001
1111111110101111
1111111111110111
1000
1111111111110101
101111
1111111111101011
11110
1111111111111100
101010
1111111111101011
1111111111100101
11101
100110
1111111111111000
110010
1111111111110011
101001
1111
100111
1111111111100111
10010
1111111111101101
10011
1000
1111111110111111
1111111111111010
101111
1111111111101011
10001
101001
1111111111101111
1111111111100110
101111
100010
0
1111111111110110
1111111111010000
10000
1111111111110010
100001
1111111111111000
11111
101
0
110000
1111111111111111
1
1111111111111101
111
0
1111
101101
1000001
110010
110001
110
1111111111111101
101000
1111111111100001
10010
10
1000011
101
1111111111000000
1111111111101010
1111111111100010
11111
111001
1111111111011100
111010
1111111111100010
1111111111101110
1111111111100011
