1111111111101110
1111111111110011
100
1111111111111011
1111111111111101
1111111111110111
100011
1111111110100100
1111111111110000
11
1111111110111111
1100
1000011
1111111111101000
1111111111100011
1111111111110000
1111111111101100
10001
110110
111
110101
1111111111111101
1111111111110110
1111111111011101
101000
110110
1111111111110101
1000010
1111111111110000
100
1111111111100001
1111111111010000
1111111111111011
100
0
1111111111110001
1111111111001111
1111111111101010
1111111111110101
1111111111100110
1111111111001001
101000
110
1111111111100011
111001
1111111111010111
101011
0
110100
1110
1111111111100011
101001
1111111111100010
110
10010
1111111111111101
1010
1111111111011101
0
0
1111111111110110
1111111111001011
100
10100
1111111111100110
101
1111111111101111
1111111110010010
1111111101101011
1111111110101011
1111111111010110
1111111101011100
1111111101101001
1111111111011100
1100110
1111111111101010
1111111111111111
11011
10100
1111111111111101
101111
1111111111100010
100001
111000
1111111111111001
1111111110111001
10
11011
1111111111111010
10100
1111111110100101
1111111111100100
1001110
1001100
1111111110011110
1111111001101011
1111111010011111
1111111110101000
10100001
101001010
10010100
11111100
110101011
1110100
100110100
11000001
100010
1001101
1111111111110100
1111111111111111
1111111111111001
100100
1111111111000010
110010
1111111111110111
1111111111000000
101000
1111010
1111101
111110
10011000
1111110
1111111101111110
1111111110001000
101110
11110011
1111111001101001
1111111101000111
1111111101110111
10010111
1101000
1111111111010100
1111000
1111111111111110
1111111111111100
1001000
1101110
10100001
111000
1110
1111111111110111
1111111111111000
110010
1111111111111111
1000
100101000
11101111
110100
11100
100111000
1111111100111111
110101001
1000100
1111111111111001
10001
1000
1111111101101101
1111110110111110
1111111011101011
1111111110110101
101000
1111111101101110
1111111101011011
1111111001110101
1001011
100110100
10001010
11011
1111111111001100
1111111111101001
1111111111111001
1111111111010010
1111111111100000
1111111110101110
110100100
1000011101
100101100
100111010
1110000101
1110000100
110011000
10001011
100001010
1010110
110111111
10000000111
10100100100
111100
10011001
1110101
1111111010001011
1111111100010110
1111111111110000
100000100
1111111111110001
10111
1111111111101111
101
1111111111011011
100101010
110111
10011000
1011100010
1111111110111010
111111010
110111100
10000011101
1001101001
1111001
100101111
111011100
1000111011
100010110
1101101000
1010110000
111110
111011011
101111111
1111110101110000
101011000
10011100
1111111111011010
1110
1101
1111111111111000
1111111111110101
101110
10010011
101110110
100010011
1110100
1111111110100010
10000000011
110111101
1000100000
1100010011
1000110011
1111111100101111
10010100
101011101
10101111101
100001110
1001010110
110111100
10011010
100001010
100001011
1100111
100110
1111111110010000
10100001
1100
1001100
1111111111110010
1111111111111000
101010011
110011111
110001010
10001101001
100111111
1010001000
1100101001
10100001001
1011010011
1001011011
10001110
11111000
1001111110
1100101000
1011000110
100000110
1000111000
1110011
1000101
1001011111
1010110111
1111111111001101
11111100
11111110
1111111111111111
1111111111111111
1111111111100011
1111111111110100
11000101
110101100
1001010111
1101010111
1111110111101001
1000000101
110010111
10001000101
1111111111111111
1111111110000010
100010100
1111111101100010
1111111101110001
11110100
1111111011011101
10011101
111010
1111111101110111
101101110
1010110
1000011111
1111111011011010
110000
111001
1111111111101110
100111
1111111110110101
1111111110001111
1110000
1010001001
10000110100
10000000110
101110000
11001101
1010011011
1111101011
1111110010
11011010
1111111000
1111111110101111
10011101
1111110101111011
111011111
1010010000
11010
110101110
100011001
101111101
111000011
1011100010
100100100
100011100
1111111111111010
1111111111101101
1111111111100100
1111111111011111
1111111100111111
10011100000
10100101001
10001011110
1000101100
1111111001000111
100101
1111111100001011
1111111010111100
1111110010110111
1111111001011110
1111111111001000
1101100101
1010000001
1100101010
10000000000
111010011
10011100
1010110011
1000101001
1001011111
1100000
11100010
100001
110
1111111111101011
1111111111010001
10001
1111111110000001
10000110001
100110101
1111111011001101
1111111110111100
1111111001010010
1111111011110101
1111110100101110
1111110100001010
1111110001100011
1111111000110111
1011010100
1111111111111101
1000011111
110110111
110111100
1001000011
110101000
10000
100100011
1111110110100111
1111110010101110
1111111101010001
1111111011010010
0
100101
101100
1
1111111110000011
111
1111101101011001
1111111101011010
1111110111001000
1111110101000100
1111101111110101
1111110111011001
1111110110110100
1111110010110010
1111111010100010
101011000
111001000
1000000001
111101111
1001110
1001001101
1001000
1111111100110011
1111110111101101
1111111110100111
1111110100010010
1111111100100100
1111111101111111
1111111111011010
1111111111100010
1111111111101111
1111111101100011
1111111001001001
1111111110011110
1111110001101000
1111111011110010
1111110010001101
1111110111100010
1111101111011110
1111110101011010
1111111011101101
1111110111001011
1111111000100010
1111111001101100
10000101
1111111111100101
1100001010
1111111101001100
1111111111110011
10010011
1111110111001110
1111110111101100
1111111110111111
1111111111101100
1111110101010000
1111111100000101
10001
100
1111111111101100
100
1111111011001001
11111000
1111111011011010
1111110110010000
1111111000001000
1111111110000011
1111111110101000
10011
1111111110001011
11110010
1111111011100010
1111111000000000
1111110000111101
1111111110010000
1111111001101010
1111110101110100
1111110101110101
1111110110101011
1111110001000011
1111111100011111
1111110111000001
1111111010010000
1111110101000110
1111111101101000
1
0
101000
1001
1111111101100001
1111111100100111
1111111000000111
1111111010011101
1111111010110001
1111111010000000
1011000
10000010
11100010
1011100011
1000111010
1111111011100010
1111110111011110
111011
11111000
1111111111100000
1111110111101011
1111110011011011
1111111001000101
1011011
1111110110000000
1111111100101100
1111111010000011
1111111111001110
1111111111011010
1111111111110000
0
1111111111111110
1111111110100000
1111110101100101
1111111000111100
1111111001100010
1111111100110000
1111111110010001
1111111101000001
1111111010100110
1001001111
1111110110101110
1010110
1111111011110011
10000011
1111110001101001
1111111100101101
1111111001010101
1001
1111110101001010
1111111001000111
1111111101111110
1111110011000100
1111110101001010
100111
1111111111110010
1111111111110000
1
1111111111100100
1111111111010110
1111111100000000
1111110111101000
1011110
1111110111110100
1111110100110000
1100110
1111111001111001
1111111011010010
1111111000000101
10100010
1111111010111110
1111111011010100
1111110100101100
1111101111101001
1111111010001001
1111111100101001
1000111100
1000000
1111111111010000
1111111011111011
1111111011000110
1111111010111000
1010100
1111111110100100
1111111111111010
10111
1111111111100100
110
1111111001010110
1111110110001110
1111111100010111
1111111110101111
1111111101111001
1111111111100011
1111111110001110
1111111001011101
1111110000000111
1111110110001101
10010001
1111111111001110
1100001
1111111100110100
1111111001111100
1111111001111000
101001101
1111111110101110
1111111010101000
1111111001001011
1111111101111101
10001111
10011111
1111111110010101
1000
11000
1111111111101101
1111111110101111
1111111011101010
1111111001001000
1111111101010001
1111111111100111
11011011
110110011
10101101
1111111101000010
1111111100011111
1111111101010101
10010011
100
101100101
1000110110
110000000
1111111010110100
1111111111110111
1101
1111111110110001
1111111110010101
1111111110011010
100001111
1010
1111111110010110
1010
1111111111110110
110
1111111111110000
1111111100101111
1111111110001110
1111111110000011
100101100
100110110
10110011
11011100
101001010
1100011
100001011
101001101
1110010111
10101010
11100101
1011111
1111111100111101
1111111001111110
1111111101100111
1111111011101111
1111111110110000
1110000
10011011
1111111110110111
1111111111010111
110001
1111111111101001
10010
11010
1111111111111011
1111111111000000
1111111100001111
100101
110001011
1111111111001000
1111111101110100
1111111111110110
1111111111101000
1101100
101011000
10111110
1111111111101000
101100001
1101001110
1010000010
101111100
10011011
0
100111101
101101011
11000100
1111111111010101
1111111111001100
10001
100010
101
1001
1110110
10011011
10111011
111001010
111000101
101110111
1111111011001100
1011011001
1001011
1000010101
110101110
1011010
1011000001
110001001
1001000110
111110100
1111000
1001010000
11111110
1000011101
1000101110
1111111111010010
1111111100110100
1111111110100011
10001
1111111111001100
1000
1111111111010100
1111111111010100
11110
101101000
111011101
1011100011
10001100101
10000010010
10101111100
1101101111
1101110010
10000000000
10010100010
1111111111
10100011101
10011011110
10101110111
11001111010
10000010100
1100010011
110100011
10101111
1111111110110000
1111111110110000
1111111110110101
1111
1111111111111101
11110
1111111111011110
10010
11101
10101111
101001111
1001011001
1011111010
1110001110
10000111010
1101111111
1101111001
1111010001
11000011101
10010111011
1100100011
1101011011
10011100000
1100101100
1110011010
1011000100
101000000
101010
1111111111010011
1111111111111101
1111111111100011
101100
1001
100000
100010
1010001
1111111111110101
1111111111111100
1000000
11111001
100010101
11
1010101
1001010
1111000
1100010
10111011
101010
11011
10101011
11101111
1011111
100001
111001
100011
101000
1110
101001
1111111111111011
1111111111101010
