1
100
1111111110111101
10
1111111111001000
1111111111000110
11
1111111111111110
1111111111101100
1111111111110101
1111111111110001
1100
11010
101001
10011
11111
1111111110100001
1111111110110101
1111111111100100
1111111111000001
1101
1000011
1111111111100110
11
0
1111111111000111
11010
1011110
1111111111100101
1111111111001001
1010
100010
1001
1111111111101010
1111111111011000
101110
1111111111100100
1111111111110001
1111111111100100
1000011
1111111110111111
111
1011
1111111111101111
101101
1111111111101111
1111111111111000
111101
1
100000
1111111111010001
111111
1111111111001110
10
1111111111001100
1111111111111011
10110
1111111111110011
1111111111110111
1011
1111111111110100
110
111
1111111111111000
1111111111100110
1100
11010
1111111111111100
1100
1111111111001110
1111111111110101
111111
100111
10011
1111111111011000
1111111111111001
11100
111010
1111111111011110
1111111111101101
0
1001001
100
11110
100000
1111111111111010
1110
1010
1111111111100011
10
10
110101
1111111111111111
1111111111101011
111111
1111111111111011
11011
11010
10101
11001
1111111111000000
101010
10010
1111111111110001
1111111111011100
11001
11
11
1111111111111010
1111111110111011
110110
1111111111101111
1111111111101101
1111111111100100
1010010
1111111111101110
100
1111111111101010
10100
110101
1010
10011
10010
1111111111011000
1111111110110100
11011
1001000
1111111111110110
1111111111110111
1111111111111110
1111111111101110
1111
1111111111011110
100010
1111111111101000
1111111111111100
100100
1001
11111
1111111111111010
1111111111110111
0
111000
100111
10111
100000
1111111111111100
101010
1111111111101000
1111111111100110
10001
11001
10010
100101
1011
1101
1111111111011100
10010
1111111111010000
1111111111100110
1111111111110111
100011
10011
1111111111100001
10001
1111111111101011
1111111111111101
11
1111111111001101
11
1100
10011
10100
1111111111000000
1000100
100010
1111111111110101
1
1111111111111100
101
10101
1111111111011101
1111111111101110
0
1111111111110100
100101
1111111111110110
10
1111111111011111
1111111111010001
110100
1111111111101000
1111111111000000
1111111111101110
1111111111101011
1111111111111101
110010
101100
1111111110110111
111010
1111111111111111
1111111111111011
1111111111110101
1111111111001111
10010
1111111111111000
0
101
101001
1111111111111111
100101
1000
111
1111111111010111
1111111111110101
1111111111101000
1111111111111001
111
11011
100011
11101
1111111111011011
1111111111101110
1010
1110
1011
1111111111101010
1111111111110011
1010001
100101
1111111111100111
1
1111111111001010
1111111111100111
1010
10100
1111111111110010
10111
110111
1111111111110100
1111
1111111111111010
1111111111000011
1111111111100001
1111111111101101
10100
1111111111100011
1111111111111000
10
1111111111101000
1011001
11100
1111111111101001
100000
1001
110
1111111111010110
1111111111111011
1111111111100101
1000001
1111111111011110
100010
1111111111110110
10100
1011
1111111111101001
101100
1111111111100011
100000
1111111111010101
1111111111110110
1000011
1111111111111111
1001
1111111111110011
1111111111111011
1111111111100000
1111111111010010
110100
1111111111000001
1111111111001100
100011
1001
1010
1111111111110000
1111111111011100
1111111111000110
101011
1111111111011011
1011
100011
1111111111100110
100111
1111111111100010
1111111111011110
10000
1000
1101
10100
101111
1
1111111111111000
1111111111110110
0
1111111111001111
100100
1
1111111111111000
10110
1111111111011101
10011
1111111111100011
1010110
1111111111110111
1111111111101100
1111111111010100
101
1111111111111111
1111111111011001
1111111111001000
11010
1011
11111
110
1111111111011111
11
0
1111111111110100
110001
110100
101
0
1111111111010010
10100
1111111111110001
1111111111010111
1111111111101010
110001
1001111
1111111111011000
1111111111111101
1111111111011000
100010
0
1011
1111111111011010
110
1111111111010010
1111111111010010
0
1111111111111101
1111111111100001
1111111111100001
1111111111010010
1111111111000110
1111111111100010
10111
1111111111011110
101001
1001000
1111111111110000
0
10011
101010
1111111111110011
1111111111110000
1111111111111010
101111
1111
1111111111101111
1111111111100010
1111111111000101
0
1000100
100
1111111111101110
1111111111001001
10001
1100
1111111111111001
100111
1111111111111011
10
11010
10
1001
1111111111011111
1111111111010011
1111111111001111
100100
110
101000
1111111111010111
1111111111011001
11001
1111111111111100
1001100
1111111111100010
1111111111111100
1111111111111000
1111111111010100
1111111111110110
1111111111010111
1111111111101000
10011
1111111111001100
1111111111101001
1111111111101101
1111111111100001
10000
100110
1111111111110001
1111111111111110
1111111111101110
110101
1111111111111110
101100
100111
1111111111110011
101
1010
1111111111101100
10000
1111111111001111
10110
10101
101111
101000
11110
1111111111100100
1111111111000111
1111111111010111
1111111111110111
1111111111011010
1111111111101100
1111111111111111
10011
0
10111
1111111111110000
101010
1111111111010100
11111
100101
1111111111100011
1111111111101011
1100
101101
1000000
0
110
1111111111010100
100111
0
1111111111101110
1011100
1111111111100110
1001
111111
0
1111
1111111111101011
1111111111100000
110100
1111111111100100
1010
101000
101
1111
10111
1110
1111111111011000
1111111111000111
10000
1111111111000001
110000
110
1111111111101100
100010
1111111111111111
100100
1111111111110010
1111111111101011
110101
1111111111000010
1000001
1111
1111111111110110
1111111111100000
10110
10100
1000010
110101
1111111111111001
1111111110110011
100100
110000
1111111111100101
1111111111011000
0
1111111111011001
10110
1110
1001
11100
1111111111110101
1111111111110111
1111111110001001
0
11101
11110
1
1111111111110000
1111111111110111
0
1111111111100011
1111111111111100
1111111111011100
1111111111111101
1111111111110101
1111111111110001
101
1111111111101000
1111111111111011
10010
1
1111111111111100
1111111111101011
1000110
101010
1111111111111011
100101
101001
111001
101000
1111
1111111111111111
11010
11011
11001
1010001
1111111111100101
1011
101001
101011
1111111111111101
1111111111100110
110110
1111111111111101
1111111110101001
110010
1111111111011010
11011
100010
110
1111111111101000
1110
10
1111111111101110
110111
101110
1111111111111100
10100
1111111111111101
1111111111111111
1111111111101011
100111
1110
1001
1111111110101111
0
1001
1111111111000011
1111111110100101
1111111111111011
110110
1111111111001100
1111111111101110
1111111111010100
1111111111110100
0
1111
10001
110000
1111111111111110
10001
1111111111101111
1111111111110100
1111111111011011
1111111110101100
1111111111100111
111010
110
10
1111111111110110
1111111111010000
1111111111001011
100101
10001
1111111111000110
1111111111111110
1111111111011100
1010
0
1111111110100110
100011
101010
11001
1010
1101
1111111111010110
1010
1111111111110100
1111111111111000
1111111111101101
1111111111101011
1111111111110100
100010
10010
1111111111111010
110
1000111
100000
1111111111111011
1111111111001000
1111111111111101
11
1101
1111111111111100
1101110
1111111111110111
101100
1111111111101011
11
1000
11
1111111111111011
10110
1111111111010011
1111111111101110
10010
100101
10
1111111111010100
101000
1111111111110001
1111111111011100
1111111111101101
1111111111110001
1111111111100011
1111111111100000
110001
1111111111101001
101
1010111
1111111111110000
110
110011
10110
1111111111100110
101101
1111111111001100
1000010
11111
100110
1111111111111101
10001
1011
1
11100
1111111111111000
1011010
1010
1001
100100
101011
111
11010
10111
1111111111111011
1111111110110110
1111111111101100
1000
1111111111001010
1111111111100001
1111111111111001
1111111111110011
110
11111
1
1111111111101101
10000
1011
1001
1111111111101001
1111111111111000
1111111111110011
1111111111110001
100100
11000
1111111111111010
1111111111110001
11
110011
1111111111101010
1111111111100010
1111111111111011
1011100
1111111111111010
1111111111111001
1111111111110010
1111111111101001
111000
1
1111111111101011
1111111111111001
10010
1111111111111101
10010
111
1111111111110000
1111111111100010
101001
1111111111111101
1111111111110101
10010
1111111111101001
1111111111101001
1111111111100001
100101
1111111111110001
0
1111111111101000
1111111110110011
11101
1111111111111000
101
1111111111111110
1000001
1111111111011100
1111111111100011
1111111111001100
101110
1111111111111101
1111111111101010
1111111111110101
110010
1111111111111100
100000
1111111111110011
100011
1111111111010110
1111111111111110
1111111111100100
1111111111111101
11010
1111111111110001
1111111111101000
1111111111011011
101110
1111111111001011
1011100
1011
11
1111111111101111
1111111111100010
1111111111111110
1111111111110101
111
1111111111111101
1111111110110010
1111111111111100
1010
10
1001001
100
1111111111111000
110111
0
1111111111111110
1111111111111100
1111
1010
1111111111101101
