1111111111111101
1111111111111111
111111
10111
110
1111111110110001
1111111111110110
1111111111101111
1111111111000110
100
1010
1010
1001
1111111111011011
10000
100
1111111111100011
1010
1010
0
1010
10000
110110
101001
100101
1111111111011100
1111
1101001
101000
110001
10
11010
1111111111111001
101
11011
1110
11110
1111111111110100
11000
1111111111101111
1111111111100010
101101
1111111111001110
111
110011
1111111111111001
111
1010000
1111111111000111
111
100101
10
11000
101111
1111111111111110
11011
110100
1000
1111111110110100
111
1111111111101111
1111111111111100
11011
11000
1100
1111111110001100
1111111101110001
1111111110100111
1111111110010101
1111111110110011
1111111110111110
1111111110100100
1111111010101101
1111111101110001
11001
1101111
1111111111110011
1111111111001100
0
1111111111101000
1111111111101100
1010
11
1111111111110000
1111111111001101
0
1100
1111
0
1001100
1011010
1101100
101100
1111111101101100
1111111111001100
1111111010101101
1111111011111101
1111111100111011
1100111
110001
1111111010110101
1111111100101110
10111110
1111111100000010
1010
1111111111111110
0
10000001
1011011
1111111111101001
1111111111001001
110001
1111111111101100
1111111111110010
1111111111111011
11010
101001
10111100
11010011
100110000
111100010
101010001
11010101
10110001
1011100
1011101
1111111111000100
110011100
1001110100
11010111
110000101
110111001
10010111
101110110
100111110
11001001
11110000
10111
111001
10101
110010
1111111111101011
1111111111011001
1001101
111100
101010101
101111101
101011110
1111111101100101
11111110
111
110100011
1001011110
1001001111
1111111011110001
101000011
1011011101
100100101
110000010
1011001001
1011111111
1001001100
1010010100
100101111
11100100
11010111
1111111111111001
1010
1111111111010110
1111111111110101
1111111111110111
1100
11010100
1001111001
1001100111
110110001
110100010
101101111
100100101
1111111110010110
1111111010110110
1000001000
1111111
1111111111011011
1111111110100100
11001110
1111111011101000
101100110
100110101
1111111001111101
1111111111101010
11101011
1110010
110100
10111
1010
110100
1111111110110011
1111111111101011
10111000
1110110
101001000
111
1111111101001001
111110111
11011010
101001110
1111111110010011
101010110
10100101
100010
1010100100
1000110
1100101
1111110110011000
101000
1111111001100111
1111111000001001
1111111000101010
1011001
10010010
111011001
10010110
1111111111100100
101100
1111111110001001
1111111111011100
1110011
1111111101111000
1011001
100110
1111111110101110
11011000
100000001
11001100
11000111
101111101
100000110
1111111101011000
1111011
1111111101001100
1111111100101111
110111000
1001100001
1111110111100110
1110001
10111101
11111011
110000111
111000100
10010100
1111111111110011
1111111111011001
1111111111001011
1111111110001000
1111111111001000
1111111110011011
1111111100111110
1000110
100001110
100101111
1111111110010110
11100011
111111111
1
1111111011001100
1111111111101100
1111110111100001
1111111000010010
1111111100001011
1111110110000000
1111111010011011
1111110101111000
11000011
110011001
1111111101111111
1010100
110110000
100001001
110001
1111111111111011
10
1111111111001111
1100011
1111111111001010
1111111111111011
101110
100111001
11000011
1111111011110100
10001101
1111110101101000
1111111111110000
1111111111011110
101111011
1111111101101000
10100010
100000000
10111111
100111101
110111011
1111111111000000
1110100
1000110
11101000
101110111
1101010
1111111111111111
10011
11000
1111111101011111
1111111111000101
1111111100100101
1111110110000010
1111111110001010
100001100
1011010100
1100100
1111110111100111
1111111011101111
1111010100
1010100001
10110111001
10100110000
11011001000
10011100001
10010100101
1010011100
1000100111
1111111110011010
101000010
111100110
1100010011
1001110001
11001111
1111111111100101
10110
11101
1111111101011010
1111111101011111
1111111100011110
1111111000110101
1111111101110110
10011
1111110100111000
1111111110101101
1100001110
1011010101
100011111
1101001001
11000001011
11001101100
1110000011
1011001010
1110000001
111111111
1000011011
100000
1111111111100000
1111111101010000
1111111001111011
1111111111000001
111000
10000
1111111111000101
1111111111110111
1111111101011110
1111111100101100
1111111100100000
1111111101001010
1111110101101011
1111111101101100
1001111
1011110
10000
110011010
10011011011
10101010110
111001101
10011000101
1011010110
100101001
10100101
1100011110
1000100000
11001011
1111110110011110
1111110011001101
1111111000000011
1111111011101110
10
1111111111110111
1111111111110010
1111111111100101
1111111110111010
1111111011100010
1111111010110110
1111111010101100
1111110011001000
1111111000101100
1111110100100110
1111110011111010
1111111111111100
1111111111010110
1100011111
10000111011
1111111111011010
10000111
10001000
1001111010
1111111110011110
1111111101010010
1111111101011011
1111110111111010
1111110110110111
1111110100010010
1111111010000111
1111111100111110
1111111100111100
1111111111010110
10010
1001
11001
1111111100111100
1111111001001100
1111110100011110
1111110100101001
1111101111010001
1111111010010110
1111110010111011
1111110110100100
1111111101010111
1000100000
10010010111
1001100011
1101011
1111111110011001
1111111100011011
1010111
1111111111110001
1111111001010010
10010111
100110001
11110000
1111111110101110
1111111101011000
1111111100110110
1010100
0
1111111111111010
10111
1110110
1111111011101000
1111110011000001
1111110111011011
1111110111111001
1111111000001010
1111101000001001
1111110000101010
1111101110000011
1111110110110110
10100
10101100
110010111
1111110110010000
1111110101011100
1111111010001110
1111111101111010
1111111010111101
1011100
11101011
100111100
110111111
1111111101101111
1111111110001100
110
100001
11111
1010010
11111010
100001
1111111000010101
1111111101100011
1111111100100100
1111111000010101
1111111011010011
1111110001010101
1111101000000111
1111100110100000
1111101110100110
1111101101101111
1111110001000100
1111111000000101
1111111001000000
1111111010001101
1111111101011101
1111111100100100
1111111111110101
1111111011011111
101010100
110001100
1111111011001100
1111111110110110
101011
10011
11101
1010
1010010100
100010011
1111111111100101
1111111
1110
1111111100000000
11010110
1111111000010101
1111111010000111
1111100111110000
1111101101100010
1111111011010100
1111110011000011
1111110101111100
1111111010001100
1111101100001110
1111110110001011
1010001
1111111101010101
1111111101010110
11100001
1111001
1111111110100000
1111111111101101
1111111111110011
11011
100
1111111111110000
111000101
101001011
10011000
10100010
10101110
1111111100101010
11011000
100000001
1111111101111010
1111111001111100
1111110110100010
1111111001000011
1111111001010110
1111111111010110
1111111101000100
1111111100100100
1111111001000010
1111111100001111
10100110
100111100
11100001
11111100
1111
1111111111010110
1111111111101111
1000
1111111111100101
1111111110001111
1111111111001101
10111100
1000111
1010110010
10010101
1000000
100011101
1111111101000010
11
1111111010010111
1111111100011111
1111111110010011
1111111011100101
1111111101100001
10000101
11000110
1110100
1111111001000010
1111111001000110
11000000
11000
1111111111000111
1111111110101001
10110
1000
1111111111100000
100
1111111100111010
1111111100001011
11000000
10111111
1010010
110010100
1111111110000000
100000001
1001000
110101111
1111111100011111
10011001
1111111010010110
1111111010001100
1111110100011111
1111111001100101
1001111
1111111011001101
1111111101011101
11
1111111111110100
1111111100011100
1111111101111101
1111111110111000
1111111110011110
1111111111111110
1111111110101000
1100
1111111110001011
10110011
100000110
1111111110000111
1111111000000011
1111111011111100
1111110111100001
1111111001100011
1111111110100010
10111111
1111110100011010
1111111111110101
1111111011010100
1111111101011101
101000000
1111111111000100
11
11000
1111111101101111
1111111111000001
1111111110101001
1111111101000001
1111111101101011
1111111110011111
10000
1
1111111111110101
1111111111101011
100110
11010101
11100100
1111111101100101
1111111011001011
1111111100111101
101000111
1111111010011100
1100100
1111111010001101
1111111011011010
10011011
1111111101010101
1010
1111111110011011
1111111001100000
1111111101111100
1111111101100001
1111110
1111111101110001
1111111001111011
1111111111100101
1111111110010100
1111111111100100
1111111110110100
11100
1111111111000110
111
110
1111101
1111111110100010
1111111000011011
1111111001010000
100100010
101100100
10111000
100100010
1111111101000110
1111110111001101
1111111101011001
1111110011010010
1111111001101001
1111111111100100
1111111011000111
1111111000001000
1111110111000000
1111111001111001
1111111011111001
1111111101001100
100101
1111
1111111111011000
101110
1111111111100010
101110
1111111111100001
1111111111110010
1111111111001111
1111111101011110
1111111010011100
1111110111111111
1111111101111111
11100010
100110110
111000101
1111111110111001
110100011
101011010
1111111110110100
10101000
11001011
10001
1111111000011111
1111111011001001
1111001
11010101
10110
10001000
1110
1111111111011000
1111111111010010
1111111111101000
1111111111011011
111
111110
1110
10001011
1010
1111111111010111
10100100
10100001
11100111
101011111
1111111111111100
1111111110000101
100001
100010010
110100110
100100110
10011111
1111111111011101
1111111101001010
1111111110001111
1111111111100011
1111111111101110
101101
1111111111100101
110
1111111111101011
10011
10000
1111111111110001
1110
1111111111110110
1111111111101010
1111111110111101
1100
1111111111110100
1111111111111110
1111111111011001
1111111100011111
1111111110100101
1111111111010011
1111111110100011
1111111110101111
10101001
110110
1111111111011000
1111111110110110
1111111101101011
1111111111011101
110011
1111111111111110
1111111111110011
1111111111000100
10011
101001
1111111111011001
