1111111111100001
1111111111100101
1111111111100101
1110
1111111110100101
1111111111010110
1111111111010110
1001011
1111111111101011
0
1111111111011101
11110
1111111111101010
1010001
111100
1111111111111000
10100
1111111111100101
1111111111101100
1111111111101110
101
101011
1100
1111111111100111
101100
1111111111011110
1111111111100100
1111111111100000
110001
1111111111110100
1100
1111111111111010
10000
1111111111110110
1111111111001110
1111111111111101
1111111111110110
1111111111010111
111000
1111111111101001
1111111111110011
11011
1011
1000010
1111111111010110
1111111111100011
1111111111110110
1111111111111001
1111111111101100
1111111111110110
1111111111101001
1010
1111111111101110
1111111111110001
1110
1111111111101101
1001
1100
1000
100000
110101
1111111111101100
1111111111111110
10110
1111111111011000
11010
10000
1111111111010110
1111111111101000
1111111111100100
1111111111100110
1111111111011011
1110
1111
1111111111111111
1001
1100
1111111111110000
1111111111110111
1111111111111101
110101
1111111111110110
10111
10011
11011
110
111
1111111111110001
1111111111111101
101001
100
101000
1111111111011101
1011
11110
1111111111001110
1111111111001101
10100
110101
11001
1100
1111111111110010
100100
1111111111100101
101
1111111111101110
1000
100011
1111111111011010
11110
110001
110111
111100
11011
1111111111010010
101
1111111111001111
1111111111001101
1111111111111001
0
1011
11110
100
1111111111111011
10101
1111111111001001
1111111110110011
1111111111011100
1111111111111011
0
11
1111111111110000
1000
101010
1111111111111010
1111111110101010
101011
1111111111110100
11100
1111111111111001
1111111111100111
1001010
1111111111100101
110011
1111111111010011
111000
101011
1111111111011101
11011
1111111111111111
1110
1111111111111111
1111111111101100
1001
11000
1111111110100010
1111111110110011
1111111111011111
10101
1111111111110100
1100
1011
101
1111111111110011
1111111111101111
1111111111011111
1111111111100100
101
101
1111111111110100
1001
1111111111011010
1111111111101010
1111111111110000
1111111111110100
110101
1111111111011010
1110
100101
1100
100111
1111111110111101
1111111111100101
0
1111111111011110
101001
1111111111110011
111
1111111111101011
1111111111111100
110101
0
1111111111101110
1111111111110011
110000
111
1111111111110111
1111111111101011
11111
1111111111100110
1111111111010101
1111111110111110
1111111111111111
1111111111110110
100110
0
10
101100
111010
101000
1111111111110100
1111111111101000
1111111111111111
1111111111101110
1000
101
1110
1111111111110010
1111111111111011
111010
11
1000100
1010101
110100
111
111
11101
1010
1111111111100000
1011
1111111111110001
1111111111101111
0
1001
1000
1111111111101110
1111111111011010
1111111111111011
110
1111111111010100
1100
1111111111101101
1111111111101100
1110
1111111111011100
1111111111110000
101
1111111111001100
1111111111101111
1111111111100001
1101
1110
1111111111111110
1111111111110011
1111111111111100
101000
1111111111111000
110
1111111111010100
10100
1010
1111111111111001
1111111111010000
1111111111111100
10111
1111111111010100
11
1
1011
1111111111111000
1111111111101000
1
11010
100000
1111111111111100
1011
11
100010
1111111111111110
1111111111110110
1111
1111111111101110
11
1111111111111100
1011
1111111111011111
1111111111101110
1111111111111100
1111111111101111
1111111111100001
1010000
101001
1111111111111000
1111111111000111
11
1111111111111000
1111111111110100
11010
11101
1111111111011000
1111
1000000
10011
1111111110111011
110010
1111111110111000
1111
1111111111110100
1101
1001110
111101
10000
1111111111110110
0
1111111111111001
11001
1111111111001010
1010010
10
0
1111111111111110
1111111111101000
1111111111101110
10000
1111111111101101
1111111111011101
11000
1111111111010010
1111111111101111
1111111111101111
100101
1111111111011010
11111
1111111111011011
10
1111111111010010
0
1111111111111101
100011
1111111111110100
111011
1111111110011111
1111111111001101
1111111111011101
1111111111010101
110011
101
11
1111111111101000
1111111111101000
1111111111111100
11011
1111111111100001
100011
10111
1111111111100110
1101
1111111111110110
1111111111001111
100
110
11
1111111111110110
10100
10001
11111
1111111111111111
11111
1111111111011001
1111111111110100
1111111111111011
10010
1111111111101000
101101
100000
100000
1111111111101010
11100
1111111111100001
100001
1010
0
110000
1111111111111110
110001
100000
1110
1111
11101
1111111110110001
1000000
1111111111100011
100010
0
101011
1111111111101011
11000
100011
1111111111100010
1111111111111111
1111111111111101
1000101
110011
11000
101001
1111111111110111
10010
1111111111010110
1111111111111000
1111111111011100
1010001
1111111111101100
111
110011
1111111111110011
1111111111010010
1111111111101101
1111111111110011
1111111111111111
1111111111110100
1111111110111011
1111111111001101
101010
111111
11
10010
100011
1001
1111111111110010
1111111111111000
1000101
1111111111110110
10111
101
1010
11101
1111111111010011
110
10010
1111111111001011
1111111111000001
1111111111110001
1111111110111111
1010
1111111111100100
1111111111011011
1111111110111110
10000
111011
1111111111010001
111110
1111111111000110
1111111111011001
111110
1001111
1111
1111111111101110
10000
1111111111011010
1111111111010111
1101010
1111111111000100
1101
11001
0
1001
1111111111110000
1111111111000110
1111111111110100
110101
10001
11111
1001
1111
1111111111100000
1111111111100001
1111111111111101
1111
1111111111111110
1111111111010111
1111111111111111
1111111111111000
1111111111111111
1111111111111111
0
10100
1110
11
1011
11111
1111111111110011
11000
1111111111111010
1
1110
11100
100
1111111111101111
101
1111111111101001
1111111111111010
1111111111111110
11000
1111111111001101
1111111111100010
1111111111111110
1111111111110100
101111
1111111111111010
101000
1111111111110001
0
1111111111101100
1111111111111110
1111111111111000
11111
1111111111111100
11010
101110
1100
1111111110101100
1111111111110011
1111111111000100
100011
100010
1111111111101011
1
1111111111100001
11110
1111111111011101
1111111111110101
11111
10
1100
111
1111111111010100
111101
1010
10
1111111111100000
1111111111101101
1111111111110000
101110
110000
1100
1111111111100000
101000
110101
10110
1111111111010001
1111111111101101
11
1
1111111111011001
1111111111101111
111
1111111111001011
1111111111001010
11001
100110
10000
1111111111111000
101110
1111111111010100
10111
1100110
1111111111110011
100
1111111111101010
111101
1111111111111101
11001
1111111111001110
1111111111001110
0
1101
1101
1111111111101000
100011
1111111111100011
110000
100001
100111
101110
1111111111111110
1101
1
1111111111001101
1111
110110
1111111110111110
100011
110
10100
11001
1111111111100111
1111111111110110
1000000
1100
101000
1111111111100100
0
110000
1111111111111110
1111111111001010
1111111110111001
1111111111011011
11000
1111
1111111111110110
1111111111011100
1111111111111110
1111111111110010
110101
1111111111011100
1111111111111100
100010
1111111111110111
11100
0
11110
100101
10011
111100
1010
11010
1111111111001011
1111111111000101
1111111111111000
1000
1111111111110000
1111111111011010
1011
111011
1111111111110101
1111111111111101
100100
1011
1111111111101100
1111111111110110
1110
1111111111100001
1111111111100101
1111111111110111
1111111111111011
1111111111001101
1111111111101011
1111111111010001
1111111111111110
1111111111111011
101100
1111111111111101
1111111111110011
110100
10101
1111111111011011
101000
1111111111111011
1111111111111011
10100
100010
0
10
11101
1111111111110111
1111111111011101
100011
1111111111001110
110001
1111111111010011
1000
1111111111110000
1111111111111011
1000
10100
101111
1100
11101
1111111111111101
1111111110111000
111001
1111111111110101
11111
10110
11
1110
0
1111111111101100
1111111111111100
1111111111100111
1111111111100100
10101
110011
1111111111110011
1111111111110000
1111111111101011
1111111111100001
1111111111101011
1111111111011011
1111111111011110
1111111111111101
10000
1111111111110010
1101
1111111111011001
1111111111011101
10111
10111
1111111111011110
100101
1111111111111001
101
10000
110010
1111111111110010
1
110011
101
11101
1111111111111001
110000
1111111111011011
101011
1111111111100011
1111111111111111
1
1111111111100101
101011
1111111111010010
1111111111111110
10000
10001
1111111111110001
1
1111111111111010
1111111111011001
1000
11000
110001
10101
1111111111000010
101
100010
1111111111110010
10000
1010
1111111111110010
11
1111111111101110
1111111111111001
11000
101000
1111111111110100
1111111111010001
101000
1111111111010101
1011110
1111111111001010
100101
1111111111111011
100111
1111111111100111
1111111111110001
1100
1111111111100111
1111111111101010
1111111111011111
11111
10110
1111111111111100
11010
1111111111011010
1111111111110010
1111111111110011
1111111111101011
1111111111100011
1111111111111101
110
110100
111101
10
1111111111110101
1111111111111111
1111111111100011
