10101
1111111111110101
1111111111110101
1111111111111001
1
1001010
1001011
1111111111111100
1111111111001110
1111111111101100
1111111111101111
110001
1111111110101001
110
1111111111011000
1111111111111110
100001
1010000
1000
1111111111110000
110110
10001
1111111111100100
111011
111
11000
0
1111111111101000
10100
1111111111110101
1111111111010010
1111111111111010
1111111111010011
1111111111101000
10011
110
1111111111111001
111
1001000
10010
1111111111111100
100
10
1111111111010101
1111111101110101
1111111110110001
1111111111011000
1111111110011110
1111111111010000
1111111110111100
1111111110010010
11101
1111111111111000
100
1100
1111111111111101
10
1111111110110111
1111111111111010
101001
1111111111101010
10001
1111111111110101
101
1001
1111111111100011
1111111111011010
1111111110110110
1111111101111010
1111111101100011
1111111101101110
1111111110110000
1111111101010110
1111111110101001
1111111111110010
1111111110101111
1111111111101010
1111111111010100
1111111111100101
1111111111101111
1111111111110001
1111111111101110
1111111111011101
11110
1111111111110001
111
110100
10110
10100
1
1111111111111011
1111111110111001
1111111111001111
1111111111100001
1111111111000000
1111111110011110
1111111010110001
1111110111101111
1111110011010011
1111110011100100
1111111000110110
1111111001111000
1111111001110000
1111111110010111
1111111101111100
1111111101010010
1111111110110111
1111111111000110
1001
1111111110111011
1111111111011100
1111111111111110
1101
1111111111000111
11001
1000
100011
1011
111101
1111111101110101
0
1111111110101101
1111111011110000
1111111010111101
1111110110100101
1111110000110001
1111101111000101
1111110011000001
1111111111001000
1111111010000100
1111111000101000
10001000
10000111
10101111
101000111
10111111
1111111101101011
1111111100101010
1111111111001000
1
11110
1111111111101110
111
1111111111011001
1111111111101000
110001
11
1111111100001010
1111111110100100
111101
1111111011010000
1111111100101000
100100111
1111110111110010
1111111101101011
1111111001111111
1111110110101101
1111111010001000
1111110110100100
1111110010000011
1111110101100010
1111110111101101
10101000
100001111
10011001
1111111110011111
1111111110010011
100
1111111111100111
1111111111101011
1111111111111010
1111111111000010
1111111101111101
1001
100111110
10111000
101100001
100111000
101000
110000
101100001
1111111001001011
1111111101010011
11001100
110111101
100101011
11001100
1111111000111100
1111111001000001
1111111110100110
111100010
110110
1111111101101011
1111111011000110
1111111110000000
1111111101011110
100011
111
1111
110000
1111111101101010
1111111011100100
10001011
111110011
10010
1100011111
101100101
1111111111000110
1000011111
1011011100
1111111100011110
1111110101111001
101101111
111100000
1111111010000001
100100011
1111110
11010
101001010
10111100
1000001
1111111110101101
1111111110011001
1111111111111001
1110
1011
1111111111010000
1111111110111111
1111111001011010
1111111100001011
11000
1001100010
1010110111
1000100110
111110
111000100
10110111
1110001
11111
1000000100
1111111010110111
10001101
1001100010
101000
1110000
1111111010011110
1111111100010000
100010110
1011100
1111111110101001
1111111100101000
1111111110110000
1111111111100010
1111111111101110
1111111101110001
1111111101100000
1111111001001000
1111111100000101
1111111111101101
10100111
100010
1111111011100100
11111100
1111111110101011
11011010
11010100
1111111111011000
1111111101100100
1111111011111011
1111111110001010
10111100
10000011
101001
1111111111100110
1001101
1111111110011000
1111111100111101
1111110110100111
1111111100001101
1111111111110011
10110
1111111111101110
1111111110000100
1111111101001000
1111111101000111
1111111011001010
1111111100000100
1111111001110011
1111111011110110
1011010
1111111001111000
1111111111011110
1111111111000010
10110001
11101
1000001
1111111110010101
1111111011001011
101011
10110110
1111111010111010
1000011
100110110
1111111100111001
1111111011001011
1111111010000100
1111111011010010
1111111111011011
1111111111100000
1111111111111101
1
110101
1111111101111001
1111111000001010
1111111000111011
111010
101010001
101101011
101111011
111000011
101011110
1111111000110000
1111111111000100
10110110
1000101101
1100011
1111111110100011
1111111011100011
1111111100000111
1111111110110010
1111111110010100
1111111101011101
1111111111001110
100
1111111101100001
0
10010
1
1110
1011111
1111111100110100
1111110100011111
1111111101100011
101111010
110010011
1111111110010100
111111111
111001101
110000110
1111111111011000
1111111101111011
10000101101
1000100000
1111111101000100
100111110
1111111110010011
1111111010010101
1111111100100101
1100000
111001
1111111110011011
1111111110010011
1111111110001100
1111111111111010
110
1111111111011001
10110
1101000
1111111110000000
1111111101011100
100111
1010001110
1011001
101001101
1001010000
10110101
1111111110111011
1111111000010111
110000101
1110100100
1010100100
11000111
111000100
1110001
111011100
100110000
1111111011010111
1111111000100010
1111111000110000
1111111011100101
1111111100110001
110
1111111111101101
1100000
1111111111111011
100
11001101
10
1100111
111001101
11101101
10011110
11001101
1001
1111111111001111
1111111001001101
110001000
1000011001
101111110
110011010
1000000110
1110101000
1000100010
10001010
1111111011101010
1111111100111101
1111111000110110
1111111011011010
1111111011101111
111
1111111110111111
1111111111111111
10101
10010
10100111
1111111010111010
1111110111111000
1111111110011101
10011001
111010110
111000100
1101011
1111111001101001
1111110111001010
1110000010
1111011000
1011101000
1011000100
101100001
1111111111010000
11110100
1011100111
11111000
10100
1111110101100010
1111110111000001
1111111011010011
10101
1111111111110010
1100
1111111111011010
1111111100111101
1111111100101111
1111111101010000
1111110110010000
1111110111011011
11010011
10010011
1111111101101000
10010110
1111111111111010
1000
10101000101
10010001010
1000011000
101000110
1111110110111010
1111111111110001
101101010
1111101
1111110101100000
1111110011111100
1111110000010010
1111110011000011
1111111010110000
1111111111110000
111
101011
1111111111000101
1111111100011101
1111111010110101
1111111001110011
1111110010010000
1111101110110000
1111110111110110
1111110111101010
1111110111111100
11111010
1111110110001000
1111001
111011001
1010001011
1111111111000011
1111111101011011
1111111001111110
1111111010100001
1111111100111011
1111111001010110
1111110101000010
1111111000100010
1111110100111111
1111111001011101
1111111100000001
1111111110101110
1111111111011000
1111111111100110
1000101
1111111101010000
1111111001010100
1111110101110011
1111110000001100
1111110010111101
1111111001001010
1111110101011111
1111111000110000
1111111001010111
1111111101101101
1111111111110010
1111111110011011
1111111100011011
1111111001001000
1111111101000011
1111110110101101
1111110100010101
1111110011100010
1111101111100001
1111101110010110
1111101100111110
1111110011111101
1111111010101010
1111111111111001
10111
1111111111111100
100110
1111111111110010
1111111111110111
1111111100100100
1111110110000011
1111110011010011
1111110110111100
1111110100110011
1111110100100001
1111110110100100
1111111100000010
1001101
1111111111010101
1111111100000110
1111110111100000
1111110100011110
1111101000111111
1111101000000101
1111100110100111
1111101110001110
1111110001011100
1111101101011001
1111101101010000
1111110101011111
1111111100011011
1111111011110000
1111111111010001
1111111111111000
1111111111010110
1111111110110111
1111111011111111
1111111001001101
1111110010010110
1111110010100010
1111110001110111
1111101101010101
1111111010100011
1111111001000000
1111111011101101
1111111110100001
1111111111110001
1111111110001000
1111110010000001
1111110001011010
1111100110010101
1111101000101111
1111101111110111
1111110110011000
1111111010011001
1111110110011010
1111110110000010
1111111001100011
1111111110100101
1111111110010001
110001
11101
1111111111110011
1111111111101000
1111111100100000
1111111010000001
1111110111000011
1111110110011010
1111111001110000
1111110110100100
10010101
10110101
1111111001101010
1111111100011011
1111110111000100
1111110111101000
1111110011010000
1111111101001100
1111110100000111
1111101101110011
1111110111000101
1111111001001010
1111111010000110
1111110111110000
1111110111010110
1111111010100000
1111111111101101
1111111111111101
100
1111111111111011
1111111111101100
1111111111011000
1111111101010111
1111111100101111
1111111011111010
1111111111101110
1111111111010010
10011010
1111111100110100
10110000
1111111010100000
1001101
1111111100110110
1111111000111010
1111111111001000
10010010
1111111011011000
1111110100001100
1111111100010000
1111110100001110
1111111100001101
1111111000000110
1111111001000011
1111111110001011
1111111111011011
1111111111011010
1111111111110001
10
1111111111011111
1111111111000101
1111111001110011
1111111100010011
1111111011110111
10000011
100000010
10010011
1111111111100111
11110100
1111111101101001
1000011
110101
1111110101111100
1111110001110100
1111110101011111
1111110101001010
1111110111101000
1111110001110100
1111101100100011
1111111000100101
1111111001010110
1111111011110111
11110
10101
1001
1111111111010100
10101
0
1001110
1111111101100111
1110101
1010100011
1000111000
111010000
1100101
1111111011110010
1111111001111010
1111110100101011
1111110001100101
1111111101111100
1111111011010011
1111110101111111
1111110101001101
1111111010111110
1111111100001110
1111110010101111
1111110010100000
1111110110010111
1111111010110110
1111111101101000
10000
10011
110011
100101
1011
101110
11
1100111
110001110
111010110
1111111111101100
1111111110111110
111010
1010
1111111110010100
110101
1001000
1111111110000101
1001111
1111111111111100
1111111100101111
1111111100000011
1111111110100111
1111111001001111
1111111110010010
1111111100011111
1111111101011011
1111111111100010
1101
10
1111111111110100
100
111010
10101
1010001
1000011
1111111111011001
1
1111011
10100010
10011001
1111111111011111
1111111101101010
1111111010100011
1111111001000010
1111111011000000
1111111111110010
1111111101100010
1111111100100010
1111111011110000
1111111101100101
1111
1111111110110010
1111111100110010
1111111101010000
1111111111100010
1011
1111111111110000
1111111111111000
1000
1000
1111111110011010
111101
1111111111100110
1111111110100011
1111111111010001
1111111111111111
1111111110001101
1111111110011110
1111111111101001
1111111111111110
11
1111111110101111
10010
1111111110101010
1111111110101101
111
10000
1111111111110000
1111111111111001
1111111111010010
1000111
1001
1011
10000
1111111111101110
10010
1111111111111011
