101110
1111111111101011
110101
100110
1111111111011110
1111111111110010
1111111111100101
1111111111110010
1111111111111100
100111
1
1111111111101111
1111111111101000
110010
1111111111100100
100011
1111111111101101
100101
1111111111111100
11010
1111111111010011
1111111111111010
10110
10111
1111111111111001
1111111111100001
1111111111101110
1111111111000001
1010
11
1111111111001001
10111
10100
11
1111111111010010
1111
1111111111111111
1000000
11110
1111111111110100
1100
1111111111111110
101001
100
11110
1111111111111001
1111111111110001
1111111111110010
1111111111100011
1
101100
1111111111111100
1111111111111100
1111111111111101
100101
10101
1111111111010110
1111111111101100
1111111111011101
1111111111110001
1001
1111111111001011
100001
1111111111110001
1111111111101011
1111111110110001
1111111101111111
1111111110100111
1111111101110111
1111111101110001
10
1011000
1000
101101
1111111111110101
1111111111111001
1111111111111101
10
1111111111111000
1111111111101100
0
1111111111101010
1111111110111011
101
1111111111010101
10000
1111111111010100
101000
1000011
11110
1001
1011001
10011011
1110110
10110101
10001
1111111110110010
11111110
10010001
11011111
1111111111100110
1111111101010000
1000101
1011100
1111111011100010
1111111011011100
1111111011110100
1111111101010111
100011
1111111111111100
1001
111110
1001000
1000011
10
1111111111101001
1111111111011010
1111111111011111
1111111110100000
1001111
10011001
100000100
111110011
1001001000
11000100
1111111011001011
1001111
100010111
100101001
1111111101100001
1000101100
101010000
1111111110101110
1111111101010001
1111111111010000
1111111111010010
1111111111001100
100101
10110
100111
1111111111110100
1111111111110010
111
1001000
1111111110100010
1111111100111000
1111111111001000
10110011
1100001011
1100110111
1011011100
110110010
1111111111010101
1111111010010100
100101
10100110
100101010
10100110
100110100
1010110
1111111110111010
10101001
101100001
100101111
1111111111101111
1111111110111001
100
1111111111101010
1111111111010001
1111111111100001
11010
1000011
10000000
110010011
110100000
10000001001
1110101000
100010010
1000111111
110110110
1111111101110111
1111111010010000
110000100
11000010
100111010
10011
10101001
11101000
1111111100110110
111110010
1000100011
100000010
10111110
1010011
1111111111111001
1001
10101
1111111111111101
111011
10000010
1010101
110000111
110110100
10000010111
1001001000
11110110
1111110100
1011001111
101010110
1111111111000100
11101100
110001010
1000111101
11010001
110111101
11110
1111111110001111
10000000
1111111110001100
100010110
1010111011
11010101
101
100000
1111111111110111
111101
11111
1111111111100000
1111111101010000
100
1111111100011010
1111111111011000
1111111100110110
100010111
1011110000
10111010
1100001010
1111111011001001
10010101
1001010101
1111111111110100
1111110111010001
1111111100001111
10110100
1111111110100100
1111111111110100
1111111111101100
100101001
1011011101
10001100
10011
100010
100
1111111111111010
1111111111011010
1111111101001010
1111
110111
1111111110010010
10101000
100001
10011111
101010000
10011110011
111001111
11000
1111111100010110
111000
1111110010001110
1111101010100100
1111110000110001
1111101001110111
1111101110111001
1111110010000100
1111110111110001
1111111100100010
101110100
10111101
1100000
1111111111111100
1111111111110110
1111111111010010
10
1111111110000101
110010
101110001
100110111
1111111111101100
11011011
1010010100
101100010
1000111111
11000010
100110000
1111110011111011
1111110000111100
1111110111101001
1111111001101011
1111110010010010
1111101010110110
1111101111100000
1111110010010100
1111110010000010
1111111001111010
100001010
10111001
11110
0
1110
10
1111111111010101
1111111110011111
1111111
101011110
111000011
1111111010101001
1111111101000011
1111111010001110
1001100011
1011010011
1111111100110110
1111111001000101
1111110111001110
1111111100110100
110010010
100110
1001111100
1111111011111011
1111110100011110
1111101111111000
1111110101001001
1111111000010110
1000000
1011010
1111111111011010
1111111111110001
0
1111111111101011
11111
1111111110010111
11000000
10001001
1110010101
1111111111101000
11011110
1010111111
10001000000
101111001
1111110111110001
1111110011111001
1111110101001000
1111110001110010
1111111001100011
1111111001111001
11110101
100100101
1111111101010001
1111111000111001
1111111100011110
1111111110101101
1111111111100101
101001
1010
11011
1111111111100010
1111
1001
11101
1100100
10011001
1000000001
1000111101
11001010
110101011
1000110001
101000
1111101110010001
1111110000010011
1111111001000100
1111101111111001
1111101111011001
1111110001101001
1111110100110111
1110111
1111110011000010
1111111011000110
1111111011111100
1111100
111110
10010
1111111111110010
1111111111101100
111101
101001
1010011
1111111110110100
1111111111000011
100000101
11111111
110011101
111010010
100010000
10
1111111001001111
1111110011111100
1111101100100000
1111110100000001
1111111101010101
1111111100011011
1111111000001000
1000
1111110101011011
1111111011001010
1111111011010001
10011101
11110110
101110110
1111111111111100
1111111110010001
1111111111000000
0
1111111111011011
1111111111111101
1111111110100111
1111111111101011
111001011
100100000
111111111
1111111110111011
1100011
1111111111101100
1111110100101100
1111110101101001
1111101110010101
1111110011100101
1111111011001010
1111110101000100
1111111010000000
1111111101100001
1111111010111011
1111111101011011
100000101
111011
11101110
1001001011
1111111101101011
1111111111101011
1111111111111100
100
1100
11010
1111111110110100
1111000
101010010
100000
1111111101110111
1111111110010111
11000100
1111111011100101
1111110100000001
1111111001001011
1111110110110011
1111110110011011
1111101111000000
1111110001110110
1111110100100011
1111110001111100
1111111110001100
1111111100101011
100110111
111100000
111110010
101110011
1111111011101100
1111111110100100
111010
1101
101010
1001110
10101
1111111101000110
1111111111000101
1111111001010110
10011110
1111111100100000
1110011
101010
10100000
11100111
1111110111111101
1111110111000011
1111101100001011
1111110101001111
1111110011010010
1111111010000100
1111111111011011
1111111100001110
11101101
10111001
1001011110
110011100
1111111110111110
1111111110001101
1111111110111100
1111111111100110
101101
1111111111110110
11110
1111111101011110
1111111010111011
1001010
101000110
1111111010011110
100010011
1111111100000111
1111111010110000
1010
1111111000001010
1111110011110110
1111101101001001
1111110110111100
1111110100101000
1111111110110010
1101100
110000011
101111000
11111100
110010011
10000010
1111111101010010
1111111110111001
1111111111000001
11010
1111111111100000
10010010
11000010
1111111111011101
10001110
110010001
1111111110001000
1111111001111100
10111
1111111110110001
10100001
110100100
1111110000010110
1111110001010111
1111110011111100
1111111001010101
1110
10010101
111110111
100100
100100010
1000001000
1111111111000010
1000101
1111111100101110
1111111110101101
110
1
1000
1100010
10101000
1111111111100000
100000000
1111111100011111
1111111111000110
110100
111110010
1111111010001111
1111111011010110
1111111111111010
1111111110111111
11011011
10010000
1001111011
10111001
111011011
1101011
1111111111011101
100010
1000001011
101101110
11110
11
1111111111001101
1111111111011011
1111111111000101
1111111111111010
10010
1111111101110111
10010101
10100110
1111111001111100
11011
11101110
1111111110000100
110000101
1000101
1111111101001000
110100011
111001000
1111111110
111100101
10001001
110100111
1111111101001110
1100101101
100111101
1111111111110100
1010000011
1000111
1110000
1111111110100010
1010
1011
0
100101
100000
1111111110100011
1100101
1111111101010100
1111111000011100
1111111101101110
1111110111101011
1111111001100000
1111111010011100
1111110111011100
10110001
1000100111
111101100
1000110111
1101110
10001001
1111111011000000
11000
1111111101011010
11
111001011
1111111101100101
11001
1111111111000111
1111111111111101
1111111111111010
1010
1111111111110101
101
1111111110011000
1000010
1111111111000010
1111111001110110
1111111110111010
1111111101111011
1111111010100010
1111111011001100
1111111011111101
1011000100
111111011
101011111
110101101
1000001010
110000010
0
1011001
1111111110001100
11011011
11001000
10010011
1111111110110101
1111111111101110
101
1111111111100111
1
0
111
110111
1011
1111111110111001
10000111
111100
1111111011110011
1111111010000001
100101101
1010101111
1001010001
1000110110
1100011010
101111101
1011111000
1011010111
10011100
110000010
10000011
11100101
1110
10001101
1111111111010001
1111111111110100
1100
11110
1111111111111000
11101
1111111111101110
10111
1111111101011110
1111111110000011
1111111100111110
1111111111111010
11100011
10101000
1001000010
1110100011
1100000101
111101111
100010000
100110110
1000010010
1010110001
111100011
1000001
1011111
100000110
11111011
100001001
10111
1111111111100101
100001
1111111111001011
1111111111111011
11101
0
1111111111010000
1111111111001011
1111111111010011
11111
1111111111100001
1111111110111101
101100
10001010
100110101
10011111
1111111111110100
1111111111100011
101100
1111111010111111
111001
100011001
110011
10010111
1000001
100100
110101
1111111111110110
1111111111011101
1
1111111111101111
1111111111110101
1111111111111111
11010
101110
0
111
1111111111111001
1111111111111010
101011
11100
10000
1111111111111110
1111111111100011
1111111111011010
1111111110001111
1111111111110111
1111111111111101
1111111111001001
1111111111101010
100010
101000
1111111111100011
1
1111111111100000
100011
101000
1111111111101000
