1000
1111111111010000
1111111110011101
1111111111010011
1111111111110110
1111111110101100
1111111111101101
1111111111011011
1011
1111111111111111
11001
110011
1111111111011100
1111111111011011
110100
1111111110111000
1111111111101011
1111111111001011
11001
1111111111001000
1111111111101000
1111111111111010
1111111111111111
1111111111010100
1111111111010011
1111111111000110
110100
1111111111111010
100000
1111111111100000
1111111111010010
101111
10000
1111111111111000
1111111111110000
1111111111011110
1111111111100110
100011
1111111111001010
1111111101100101
1111111100111100
1111111100111101
1111111111010001
1111111111100101
1111111110101110
1111111110100000
1111111111001010
1111111110000101
1111111110110111
1111111111011101
1111111111010010
1111111111000001
1111111111010111
1111111111110100
10010
1111111111110111
1000
1111111111101110
1111111111110010
1111111111110011
101000
100111
1111111111100010
1111111101101101
1111111101010110
1111111101111100
1111111100101000
1111111010101011
1111110111000101
1111111001110101
1111111101111101
1111111111011001
1111111110100100
1111111100100001
1111111111000000
0
10000
1111111110010011
1111111101011000
1111111110101000
1111111111100001
1111111111111100
0
1111111111101010
1011
1111111111001111
0
1111111111101010
1110
1111111111011010
1111111100001011
1111111001001010
1111110101000111
1111110100001001
1111110100100001
1111110100101100
1111110000010111
1111101110011001
1111111000110010
1111111110000011
110111
1111111110101100
1111111110010110
10100010
110000
10010011
1111111110100001
1111111100100110
1111111110110101
10010
1111111111111011
1111111111110011
1111111111101000
111011
100001
11110
1111111110101011
1111111110000100
1111111010001101
1111110110100101
1111110011001010
1111101101110111
1111101111100001
1111110110111100
1111110100000111
1111110111010001
1111110011011101
1111111100001011
1111111010010000
1111111001010001
1111111001000011
1111111000111111
1111111110011000
10110110
11010000
10000
100110
1111111111100111
11011
101001
10000
1111111111011011
1001
1111111111101001
1111111101101100
1111111011100100
1111110111000010
1111111000101001
1111110101111110
1111110100110011
1111110110111111
1111111111001000
1111111111110010
1111111000010010
1111110010001011
1111111111000001
1111111000010011
1111111111100010
10111000
1111111010101010
100101100
11000011
11001011
1001111
1111111100000011
1111111101100111
1111111111100010
1011
1111111111111011
110110
100111
1111111111011001
1111111100110010
1111111011001100
1111111010001000
1111111000100010
1111111111100011
1111111011101111
1111111010110010
1111111101010010
1111111010000011
1111110110110110
10110111
1100110111
11000110
11000
1101011111
110111100
1111111110010001
1111111100000001
1111111111111101
1111111111100001
1111110110001111
1111111110001100
10000011
10111
1111111111100000
1111111111001010
11110
1111111111100011
1111111011111000
1111110110101001
1111111110111010
1111111011001111
111101
1111111010111111
11100101
1111111111001000
1111111010001100
1111110110010001
1111111000100111
1000000110
1110100110
1111111110111100
1111111100000001
101111100
1000010001
1111111001000010
1111110101010001
101
1111111001111110
1111111110101101
110110
111000
1111111111111010
1111111111001110
10101
1010100
1111111010101101
1111111101011001
110000111
1111111101101111
1111110101010110
1111110001011001
1111111001101110
1111111110011101
1111101111000001
1111110110101001
1111111010101001
11010101
111100010
11011
111100000
1111111100111011
1111111100100110
1111111111110000
1111111000111100
1111111110111000
110001
1100100
1001010
1111111111111100
1010001
1111111110110000
1111111111111100
0
1111111000111111
1111110110001010
110011
1111111011101001
1111111111001110
1111111001000010
10110
10
1111111011100011
1111111101010000
1111110101101111
10111000
1010011
11111010
1111111101011110
1111111001111101
10000100
1111110110010110
1111111110100110
1111111111110010
1000000
100000100
10011100
1111111110010000
1111111111110001
1111111111000111
1111111110110010
1111111110010110
1111111011100101
1111111100110000
100100000
1000010
1111110100000001
1111110110010101
1111111110110100
1111111101011110
1111111010010011
1111101110011101
1111110000001100
1111111111000000
1111111111110111
1111110110000100
1111111101011010
1111111110110100
1111111010010101
1111111100100011
1111111111010101
1111111100010001
1111111111000110
100011
1111111111100101
1111111111000100
1111111111100000
1111111111011110
1111111100101101
1111111110001101
10001001
1111101
101000
1111111100010000
11101011
1111111011110001
1111110101011000
1111111011000100
1111101101000001
1111110101110100
1111110011100010
111100
100111010
1011100100
110110011
101010110
11100101
1110110
1010001
101001000
100101000
11100111
1010001
1111111111111110
1111111111110001
1111111111001110
1111111101101111
1111101
1010111000
1000110100
1001001000
101101101
1111111100111111
1111111110001001
1111111110001011
1111101101111000
1111110101101000
1111110111111001
1111111000010110
101110010
100111110
1001101100
1010100111
10001100010
1010001
1111111110100100
1111111111111100
1111111110011011
1111111011111110
1001101
10101110
1111111111111000
110
10
1111111110110011
11100111
10100010100
1011001000
101000010
1110000111
1101011110
1000110011
10010110110
1010101000
110101110
11111001
1111111110011100
1111111111110100
1111111100011001
101010111
11011000
1000100011
100010001
1111111100010111
11000001
1111111000011101
1111110010100100
10101000
10101101
1011011
1111111111011000
11010
1111111101111011
100110110
10110011001
10011101000
10001001110
1111010000
10001100101
10100011110
10000010011
110001100
1110000111
11111111
11001011
1111111110111111
1001000
1111111101000010
1111111101110110
1111111110111010
110100000
1111111110101110
110001011
1111111110100011
1111111010001001
11011011
110101
1111111111010101
1111111111011110
111011
1111111110100010
1001000101
1111101010
11000011110
10100111001
1000110011
11001000000
1101000110
1101101111
1010011100
10000110011
1111111110100101
1111111110011111
1111111011110111
110001011
100111101
1111111010011010
1111111101111110
1111111011011111
111010
11011
1111111101000110
1111111001110010
110
11111
100111
1111111111001100
10000
1111111110010000
101110011
1000000010
1101010011
1000001101
101100000
1011001100
1111111101010001
1111111111011110
1000111010
1010101011
10110110
100000001
1111111001000010
1111111100000001
1010101111
10000100
1111111111000101
1111111111111100
1111111011110010
1111111100110101
1111111101100111
1111111111110010
1111111101100001
1111111111111000
1111111111011100
1011
1111111111110010
1111111111011000
11001011
1101100
101101011
101111100
110111011
1011111010
1000000001
1110011
10000000101
1010010011
1000010101
10111110
11111101
1111111001111101
1111111010111011
11011110
1111110111011110
1111111001001111
1111111110001111
1111111111000100
1111111011010100
1111111001100011
1111111100010001
1111111110100011
10010
1111111111011110
1111111111011111
1111111111010010
11011
1111111111000111
10011010
11010011
10000100
10110010
1111111100000011
1001110110
100101010
110001101
110100001
10001110
100000010
1111111001010001
1111111101011011
1111111011011111
1111110100111110
10101
10111000
1000
1111111001010000
1111111000100111
1111111101001110
1111111110100101
1111111110110100
111
11
1111111111001010
1111111110010110
1111111000001111
1111111101011001
1111110111111000
1111110111110100
1111111101101110
1111110001100011
1111110100000010
1111110111111000
1111111001001011
1111111101011110
1111111011011110
1001100010
1110100
1001001
11100010
100000110
1111111111011111
1111110111100101
1111110101111011
1111111000001010
1111111100101011
1111111110011111
100
11010
1011
1111111111110001
1111111110001111
1111111010010100
1111111000101001
1111111100001011
1111111010001111
1111101100001111
1111110000101111
1111111010101110
1111110001010110
1111111100001000
1111110011101100
1111110100001010
1111110110000100
1111111110011010
111101111
111010110
100100011
1100101
1111111011000000
1111111011011111
1111111001110000
1111111001011000
1111111111001111
1111111110111111
1111111111011011
1111111111110101
1111111111111110
111110
10001
1111111100000110
1111111010000001
1111111001010000
1111111001110001
1111110110000000
1111110011011011
1111110101111100
1111110110101000
1111110100001000
1111110010101111
1111110110011101
1111111000100111
1111111000111100
1010111110
1111111100110000
110100
10100000
1111111001000010
110100001
1111111111011011
1111111101110000
1111111110100001
1111111111011101
1111111111001100
1111111111001101
101100
11001
1111111110110101
1111111110001110
1111111111110100
1111111100011001
1111111011010100
1111111100110001
1111111110111000
1111111111101110
1111110110001110
1111111110110001
1111111011000000
1111111000100100
1111111110010111
1111110100100000
1111110111111110
1111111110001001
1000010110
110001001
1011100
1010000101
100101001
1111111110011110
1001100
1
110
101001
111
11
1111111111011101
1111111111111111
10011
1001001
10000
1111111111001000
1000001100
10111
1111111100111001
1111111011100011
1111111000110001
1111111100000011
111010
1111111001100100
1111110100100000
100000001
101110110
10010111
1001001110
1000000010
101111101
11000000
1010111
1111111110010001
1001001
1111111111100110
10110
100011
111
10000101
10101000
10100100
11011111
11011000
1111111111010000
1111111000110100
1111111010110101
110101110
1111111100101100
11110000
1111111101000001
1010010
1111111100000011
100001000
11100001
101110010
111001011
11011011
110100001
100001100
1111111111110111
1111111110111000
1111111111101010
11100
1111111111101011
1110
10110
111110
1111111111100110
111100
111101
1111111111010001
1110010
110011001
100011
111100100
1111111010000011
11101011
100101101
1100001
1111111110110110
101011101
1111
1000100
100000101
110011011
11100001
10011
11000
1111111111111110
101
100000
1110
10111
10001
1100
10010000
10011110
101001001
101001110
100111011
1001100101
1100000110
1101110111
111111100
111111000
1011101111
1001101000
1100000
1000010010
100010101
110
110010000
11111100
10000001
1000001
1111111111110000
1111111111101001
1111111111010101
1111111111011100
1011
1111111111111011
1111111111001000
0
1111111111101100
1110
1111111111100110
1
1111111111000011
111101
110011
10100000
11111101
100100
101010
11101000
100100
101101
10000000
1111111111000100
10001101
1111111
1001111
1111111111111010
1111111111100111
1111111111100001
1
1100
