1000111
11
1100
1111111111100010
1111111111111010
1111111111111100
1111111111010110
10010
11
1111111111101001
1111111111100110
1111111111010101
101101
11011
1111111111111101
1111111111101001
1111111111110111
10010
1111111111010000
1111111111010101
10011
1000101
100
1111111111111010
10001
110110
1111111111110000
1111111111100101
1111111111101011
1111111111111001
100011
1111111111111010
1111111111111100
111100
1111111111111011
1111111111111000
1100
1000
1111111111110110
111
1111111111110111
1000
1011
11110
101010
1111111111100101
100001
1
1111111111111011
1111111111100010
100
1111111111110101
1111111111000101
1111111111111110
1111111111000101
1111111110011001
1111111111101000
1111111111100011
11010
1111111111100110
1111111111011011
1000010
111
1111111111110111
110
1111111111010101
1111111111110011
10010
100011
101110
1111111111100111
1111111111111011
0
1111111111101111
1111111111110011
1
101
1111111111000011
1101
11101
1111111111011100
1111111111101010
1111111111110100
110111
1111111111110011
11000
10
1111111111011010
1111111111111111
110
1100
101
1111111111101111
1111111111111011
100011
10100
1111
110
10000
100001
10100
1111111111101011
1111111111111001
1
1111111111111100
10101
1111111111010010
1111111111100111
11101
1111111111110011
1111111111100011
1111111111011001
1001
1111111111111000
11
1111111111100011
11100
10
1111111111010100
1000
1111111111101101
1111111111111001
1111111111100000
1111111111101111
1111111111110101
11
1111111111100111
1111111111001000
1111111111100001
1111111111101000
1110
1111111111001010
10111
1111111111111100
1111111110110101
1111111111111101
11
1001
110
1111111111101100
100
101110
111
1010
101000
1111111111111000
1111111111001000
100
1111111110111010
1111111111101100
0
1111111111100110
1111111111001110
1111111111101101
1111111111101111
1111111111110110
1
11000
1001
1111111111110010
111101
1111111111011101
101110
1111111111110011
10011
1111111111010110
1111111111011001
1100
1111111111100101
1111111111101010
10
1000110
100
1111111111001100
1111111111011110
1111111110111110
0
100000
100011
1111111111100001
1111111111100111
110111
1111111110111111
1111111111110001
1111111111111011
1001
10100
1101
1111111110111110
100011
1111111111101010
100001
1111111111111110
100000
11000
1111111111010010
1111111110110000
1111111111100111
10111
10011
1111111111011110
111011
11010
1111111111000110
11110
1000
0
111111
10
10010
100101
1111111111001100
1010
1111111110111010
100001
1111111111110101
111010
101001
110000
100000
1111111111101010
1111111111110101
1111111111101000
1111111111010000
1111111111110000
10
101
1111111111110111
110011
1011110
100111
1111111110100100
10000
1111111111001000
1111111111101010
1111111111011010
111110
11110
1111111111011000
1111111111111111
11100
11010
1111111111110001
110011
11111
1111
10010
1111111111110001
0
11100
1111111111000011
100
1111111111101111
1010100
1111111111110011
11001
1101
101111
10000
100
1111111111101000
111110
11011
1
1111111111111000
10110
100001
10
11100
1111111111011001
110011
1111111111011001
110
100
1111111111111001
1111111111100111
10111
1111111111101111
1111111111100101
1111111110101110
1111111111110101
11011
10001
100000
1011
1111111111110101
1111111111011100
10111
0
1111111110101001
10010
1111111111001111
110100
1111111111111101
1111111111001101
1111111110111100
1111111111110100
10
1111111111110110
1111111111101111
1111111110111100
1111111111110010
1000100
1111111111111001
1111111111001010
110101
101000
1111111111110111
0
1111111111101010
1111111111110010
101
1111111110111010
1111111111100000
1111111111100001
1110
11011
1111111111111001
1111111111101001
1111111111111000
1111111111110000
1111111111000101
0
1111111111010101
1111111111011100
10110
1001
1111111111000100
1111111111001100
1111111111100000
1111111111010100
11110
1010
100110
1111111111101110
1111111111111100
1111111111111110
1111111111100011
1111111111010000
10100
1100
11110
1111111111001011
100010
0
1111111111100111
100010
1111111111011110
1111111110100101
101011
10001
110
1111111111010111
1100
1100011
11011
1111111111111101
1111111111111011
1001
101000
100001
1
0
1111111111001000
110000
1111111111111010
1111111111100000
1000
10111
1111111111100010
10
1111111111001010
10010
10
10101
10010
101
1000
111000
110011
1111111111101011
1111111111001011
0
100010
1111111111011110
1111111111011111
11011
1000
110101
100110
1001
1111111111100110
1111111111001000
1110
1101
1011
1111111111110101
1111111111100010
100100
1111111111111111
1111111111110100
1111111111110001
1111111111010000
110000
101110
1111111111101101
1111111111110100
11101
100000
1111111111000100
1111111111110010
1111111111011010
1
1111111111001001
1111111111101110
1111111111111010
1111111111111011
11011
1111111111010011
1111111111101000
1111111111111000
1111111111111011
10
1111111111000001
1011
1111111111111111
10111
1111111111111101
1111111111111101
1111111111100110
11011
1111111111111010
1111111111010000
101101
1111111111110000
1111111111010111
110000
1111111111111110
1111111111101001
11
1111111111101001
1111111111010111
1101
1100
1111111111100110
1000
111100
1100
100101
1010
0
1111111111110110
110
1111111111110100
1111111111101001
1111111111011010
0
10010
1111111111111100
10110
1111
1111111111101100
1111111111000001
1111111111100001
101101
111111
101
1111111111110000
101111
1111111111101000
101
1111111111100110
10
10100
1111111111010111
1111111111011010
110010
1111111111101000
1111111111111001
1111111111000110
1001
10110
1111111111110101
1111111111100011
1011
1111111111001100
1111111111111000
1
1111
101010
10011
1111111111100011
1111111111101001
1111111111110000
1111111111111101
1000
1111111111111100
1101
1111111111001011
100101
1111111111110101
11101
11010
100101
10110
1111111111110101
1111111111111111
11000
1111111111110000
1001001
1111111111111010
101011
1111111111111110
11110
10000
101011
1111111111110110
10000
1111111111110000
11111
1111111111010001
1000
10011
0
1111111111110001
1110
1111111111100100
1111111111111011
11101
1111111111001010
100
100100
1111111111010001
10111
1111111111101011
0
110001
1111111111111000
1011
1111111111110011
1001
101011
1101101
1
101110
11000
1111111111111001
1111111111111001
10110
1111111111011011
110110
1111111111101111
1111111111100111
1111111111101010
1111111111111111
1000011
1001
1111111111101101
1111111110110010
110100
1111111111001010
1111111111110100
101110
10110
111010
1100
11011
10
11001
1111111111101000
11110
1111111111111000
10011
1111111110111111
1111111111110000
11001
1111111111101011
1111111111110100
100
1000
110110
1111111111110001
1111111111110001
1111111111001111
10010
1111111111000111
1111111111101011
1111111110101011
1111
1111111111110000
110001
1111111110101100
1111111111101111
11110
1111111111011110
1111111111111101
11110
1111111111101000
100000
1111111111110111
1111111111111000
1110
1111111111111111
1
1111111111111111
1111111111110001
101000
101010
1101
1111111111110010
1111111111110011
1111111111100100
1111111111100110
1111111111110100
11000
1111111111001101
1111111111111111
1100
1111111111001001
1111111111001010
1111111111010110
1111111111101100
1111111111110000
1111111111100010
1111111111100101
0
111100
110
1100
1011
101
1111111111010011
1111111111110001
10100
1111111111001011
10110
1111111111011110
1111111111100000
1111111111001001
1111111111110111
1111111111110100
1111111111000111
10001
101
101011
1111111111100001
1100
0
1111111111010110
11
101110
1111111111111010
1111111111000111
1111111111010111
1111111111100101
111
1110
10011
1111111111100010
1110
11
1111111111010001
1111111111010010
1000
100010
1111111111011101
1111111111110000
1111111111100001
10
1111111111110010
1111111111111011
1111111111010010
11001
100111
10
11011
101
1001111
1101
11110
100010
101010
110000
1000010
1001110
1111111111100000
100010
1000001
1111111111100000
1111111111110011
1111111111100101
101010
11101
1111111111100100
111
1111111110111011
1111111111111010
1101
1111111111111010
1111111111010011
11001
10010
1111111111011111
10
0
1111111111100100
10111
1111111111101110
1111111110101111
1111111110100101
1
101
1111111111111011
100
1111111111100100
1111111111111100
101100
1001
110010
110
100000
1111111111111011
10000
101
0
1111111111000010
10011
1111111111010010
1111111110111000
1111111111111110
110001
1111111111110100
1110
1111111111100000
1111
1111111111011011
1111111111111000
1111111111010100
10110
1010010
100100
1111111111010011
1111111111111001
1111111111001111
1111111111111101
1111111111111101
10100
1111111111010001
11011
11101
10000
11111
1111111111111011
110011
1010
1111111111111110
11011
1111111111011011
1111111111110110
110111
1111111111010101
1000
1110
1111111111011011
1100000
101
1000
1111111111010101
111000
1011
1111111111011000
111111
1111111110110011
1111111111100101
111
111110
1111111111010001
10
1111111111110010
1111111111110100
11111
1111
1111111111011011
100010
