110001
100101
0
1111111111000100
1111111111111000
110111
10010
1111111111110000
1111111111110011
100010
1001
11101
0
1011
1011
1111111111110110
1111111111101110
1111111111011100
1111111111110011
1000
10011
1111111111110101
110
1111111111111101
10000
1111111111011001
11110
1111111111101100
1111111111110001
10
1111111111010100
1111111111011000
111
110100
100110
1100101
1111111111100001
1111111111111000
1110011
1111111111101110
1111111110111101
1000001
1011000
101001
10110101
11011101
1110000
11001101
1101101
1110
1000100
100001
1111111111111010
1
1111111111010101
1011
1111111111111111
1111111111110100
1111111111010010
10100
11000
100000
11111
10001000
11101010
10100111
11010001
101000001
1001101111
101111000
100110100
11100001
111101101
1001110001
110101001
100100000
111111
11101110
101000100
11110011
1111111111111011
101
1111111111110010
1111111111111110
1010
110110
1111111111101000
1000000
1111111111111010
1111111111110000
101111101
111011100
11110010
101000111
100000010
100010101
10101000
1001111
101001010
100111011
11101011
11110010
1000110011
1100000001
1110
101001000
1001100011
1001010000
10000001
1111111110000110
1011011
1011
1111111111111000
10111
1111111111010110
1111111111110111
10111
101010
11000110
100110000
1111111001101000
1111110100100001
1111111001101111
1111110111101000
1111110100100101
1111111111101100
1111111101001100
1111111001001110
101000
1111111011100111
1111111100000110
100000000
101000011
1001010111
1010110111
1110010001
10100000
1001111
1111111111111010
10001
1000
1111111111101100
110101
1111111111110100
1111111111100110
1111111101110010
1111111111110101
1111111001110100
1111110101000101
1111110001001101
1111111101101111
1111111101000001
1111111101011110
1111111100001101
1111111110010001
1111111011110010
1111111111011000
1001011
1111111100001000
1111111
111110001
111001000
1001001011
10010011011
11011110
1111111100101001
1111111110111001
101001
1111111111011011
100001
10110
1111111110101110
1111111101110000
1111111101011001
1111111111111101
1111111001010111
1111110101001100
1111111000011011
1111111000101100
1111111101100011
1111110111101010
1111111101101100
1111111101101011
1111111101100011
1111111101000111
1111111011101010
1111111000100001
1111111010000001
1111111011101110
1111111101011010
1111111101011100
110111
1111111111011111
1111111111001100
1111111111011010
111100
1111111111100101
1001100
111
1111111101101010
1111111110011000
1111111110110000
1111111101110110
1111110110111010
1111110101010110
1111110100001111
1111111010101011
1111111010011000
1111110010111000
1111110001100001
1111111111100001
110111
1111111111111101
1111111011100011
11010000
1111110110110110
1111110101000001
1111101111101001
1111101110101000
1111110000111011
1111111100101011
1111111111011100
1111111101111011
10111
111111
1011000
1001101
1111111110101011
1000111
1111111110101011
1111111010111010
1111111001011100
1111110010010100
1111110101110010
1111110011110101
1111110111001000
1111110010011110
1111111000110101
1111110010110011
1111111000100010
1111110001000101
1111110101001010
1111100111100111
1111100111001100
1111100100111000
1111011101010010
1111100000110000
1111101000100011
1111110101101000
1111111010010001
1111111100001000
1111111111101100
11111
110011
1100001
111101
1111111111001000
1111111101001000
1111111011001110
1111111001101111
1111110110111111
1111110110011101
1111111011101001
1111111100100000
1111111111010111
1111110100000111
1111111010110010
1111110100000001
1111110001100101
1111101010000011
1111100001101100
1111011011001011
1111100100000101
1111101100000000
1111100100110110
1111101010111010
1111111001001100
1111111000000000
1111111100000011
100110
1111111111111010
1100010
1111100
11001110
1111111111011000
1111110
100110
1111111110101011
1111111100101110
1111111011111011
1111111000101001
1111110110010011
1111111000110101
1111110100111110
1100101
1111111001101000
1111110010101100
1111101000000100
1111110000111100
1111110001011110
110110
1111110110001010
1111111111100101
1111111000011110
1111111101000000
1111111001011100
1111111101111000
1111111111001000
1101
1000010
111100110
101111001
1001011010
110000011
100001011
10011101
1111111101001000
1111111010010010
1111111111111001
1111001
1000000011
1101001101
1010000010
1111111001111010
1111111110001101
1111111111101100
1111111100001111
11010110
110010010
10011
11110001
1111111010010111
1111111100110000
1111111011111001
1111111011010011
1111111111100100
1111111111111010
1111111111101111
100101111
1000000011
101001110
1111111100111111
110
1000001000
111111110
100100111
101000000
1111111000
11100000
100001010
10001111001
1100101011
1111111101
1010000001
111100110
1001001
1101001100
0
10111101
1111111101100001
1111111111100111
1111111100100101
1111111100010110
1111111111111110
1111111111111110
1101
10011000
110111101
1000001111
100100001
1010010101
111011001
1111111101010100
101110111
1111100001
100010101
1010001101
1101110101
1000111
110011101
1001110111
1111111111001101
11001111
111111011
1111111011000000
1111111111101010
110001
1001011110
1000010010
1111111001011100
1111111110001101
1111111111011000
1111111111101001
110
1011010
101111100
1110101
1001010
11000000
11101
1111110
1111111101100111
10110100
110010011
111000011
11101
1111110111100010
1111111111101101
1100011000
1111111100011000
1101000101
1111111111100001
10001110
10110101
1001111001
110001111
1010000
1111111110001100
10100
1111111111110010
100
1111111111101111
1010011
110011
1111111000110111
1111111110100110
100100001
11011101
100000011
1111111111110101
1111111110011101
101101010
1010011
1111111110000101
1111111101001110
1111111110101011
1111110101000011
10111011
100101010
101001100
1111001100
1011011100
101110001
1111
1011011
101110001
1111111110101101
1010
1111111111101100
1111111111010111
101010
1111111111110000
1111111100001100
1111111101111011
11001111
11000111
1111111010110011
1011101
1001100001
1010110111
1111111011101101
1001001001
11100100
110000
110110001
1111111110100000
1001001
1000010111
1001000110
101101101
10111110
10001011
11101
110011110
1111111111111110
1111111111011100
1111111111101101
1111111111110010
1111111111001011
1111111111010101
1111111101011101
1111111011010001
1111111111010011
1111111101101111
100001010
1111111001100101
10000011
11011011
1111110011100111
1111111011111010
1111111001100000
1111110100100000
1111111100011100
1110001
1001011011
10100001
1010111001
1101110100
110110010
1111111111101111
110110001
11111100
1111111111101110
1111111111000101
11110
1111111111101011
1111111111100101
1111111111101101
100100
11001101
1111111001010011
1111111101101011
1100001110
110111100
1111111101011010
10111
1111111111011101
11010011
1001011000
110010111
1000101001
1000000101
1000001010
1010110010
1111111100011011
1111111101110100
1111111011010000
1000101010
100011101
1110111
100110
0
1100
1111111111101110
1101110
1000110
1111111110101000
1111111110001110
1111111101111011
10100000
1111111011111110
1000001011
100101010
10010101001
10001000011
1111111111001110
1111111111110000
1000101100
11100111
100111011
1111111111011000
1000101
1111111111110011
1111111010000111
1111110111011010
111011
1111111110001110
1111111111010001
1111111111110010
1111111110011001
1111111111111110
1111111111011111
10110
1101010
1101100
10010011
1111111010011101
1111111101100000
1111110100100100
11110010
110010101
100001000
100101001
1111111101111011
1001111000
111011011
1111111111010001
1101101
1000101111
100011111
1111111111001101
1111111101010110
1111110111110101
1111111001001011
1111111011011101
111011
1111111111010111
10011
100011
110011
1011
1001100
1111
100001
1111111111111011
10001011
1111111101001111
1111111110110110
100010011
1111111010010111
100010101
101010001
110001100
1111110111010100
1001001
110110011
1000000100
10010101
111
1111111100011111
1111110110101000
1111110110101000
1111111000011110
10100011
110
1010010
1111111111101110
110
1001
110001
1111111110001101
1111111011011010
1111110110100101
1111111011011111
1111111011011001
100000
110111111
1111111010111110
1111111101000100
1111010
1111111011010101
1110101
1101100
1111111010110010
1111110110101101
1111110011000100
1111111100000100
1111111100011000
1111111010010100
1111110011100001
1111111000010100
1111111110101111
0
0
1111111111001000
11101
1111111111100001
1111111111101100
1111111111110110
1111111100111101
1111111011010110
1111110101010111
1111111011111011
11111000
1111111111000111
1111110101000011
1111111001011101
1111111010000011
1111111000101001
1111111100000000
1111110110100011
1111110001101101
1111110110000101
1111111010000100
100
111001
1111111111000111
1111111100011100
1111111100011001
1111111111100111
101100
1101
1000
1011010
1111111111100111
10101
10111
100
11
1111111111000110
1111111110001101
1000001
101101111
1011
1101010
1111110111010100
1111111010001010
1111110101011111
1111110111001010
1111111000001101
1111111100001101
10011011
10
11111111
110011
1111111110001010
1111111111010000
1111111111011011
1111111111110111
1111111111110000
110000
111010
1111111111110000
1111111111101100
1000
1111111111001011
11
1111000
1111111110100111
101010
100000010
101110100
101100000
1111111111100011
1111111111000000
111001
10011010
1111111100001001
110101
101001101
11000001
10010101
10001000
11
1111
1010
1111111111111101
1111111111111000
1111111111101000
1111111111100000
11111
100000
1111111111001000
1111111111000010
1000010
1
1111111111110100
1111111110111011
1011110
10101110
10000101
1010111
10111
100101
100011100
10001110
1111111111111111
10000100
110111
110110
1010
1111111111111010
1000
1101
1111111111101011
1111111111001001
11
1111111111101110
1111111111011111
1100
111110
11101
10110
1010
1111111111110000
111101
1111011
10101010
1010010
1111111110111000
10011
1000001
1000111
1011
10010100
1111111111101110
111
110110
100101
1111111111011001
11011
1111111111000100
1111111111010111
101000
