1111111111101001
1111111111100010
1
11101
111110
101
10101
100110
11010
1111111111111011
11110
1111111111111000
1110
1111111111101011
1111111110111011
1111111111111001
11101
10010
1111111111100111
0
101100
1000110
1111111111111101
1101
1111111111110101
101110
1111111111101111
101
100101
1111111111110111
1111111111111010
100001
10100
1001
1111111111000100
100000
1111111111111000
10101
1111111111010001
1010
11011
1111111111011100
1111111111010011
11110
1111111110100001
1111111110110001
1111111111100111
1111111111011011
1111111111010001
1111111111101001
1111111111001100
1111111110110100
1111111111011111
1111111111101101
1111111111100100
1111111111010011
1111111111111001
101000
1
1111
1111111111100000
1111111111110111
10011
1111111111010110
1111111111110111
1111111101010101
1111111101001101
1111111111011001
111100
1111111110101011
1111111110101100
1111111110010110
1111111011101001
1111111110001110
1111111110101001
1111111111010011
1111111101100001
1111111111111000
1111111111110100
1111111111100110
1111111110000001
1111111110101111
1111111111111100
1010
1111111111100100
1111111111111001
1000
1111111110111000
10111
10110
10111
1111111111001001
1111111010011001
1111110110111101
1111111001110110
1111111111001001
1111111111101111
1111111010111111
1111111111000010
1111111101110011
1111111001111010
1111111101100111
1100010
1111000
1111111101110010
1111111011010101
1111111110011110
100010
1111111110110000
1111111110101011
101
1111111111010100
1100010
1111111111001111
1111111111101110
110001
1010111
1111111110011001
1111111101001001
1111111011001110
1111110101100001
1111110110111011
1111111011000100
10100100
11011000
110111
1111111110111110
1111110111110110
1111110110010011
1111110100001000
1111111101110101
110111
1111111000110101
1111110111001011
1111111001101011
1011011
1111111111101110
1110000
100110
1111111111110000
1111111111011011
10111
1111111111011101
1111111111110111
1111111110010010
1111111100011100
1111111001010101
1111111011101111
1111111100100001
1111111111110011
10110101
110111000
1100101011
1111110110001110
10010
1111110101010010
1111111100101001
1111111100100011
1111101111111100
1111111100110011
1111111111100100
1111111001100101
1111111011001101
1111111101110000
1111111011111001
1111111111101001
10111
1111111111110101
1111111111011000
110101
100
1111111111101001
1111111110000111
100000
1111111011000101
11011011
110101000
100101100
11000110
1111110100010010
1111001
1011000
111011111
1111111001100100
1111101010010000
1111111111010101
1111111011011000
111001011
1111111111010101
1111111000101011
111110110
1011110000
1000011110
100010011
1111110
1010111
101100
1111111111110000
10101
11011
1111111110101111
11100110
1111111010111110
110
1000111000
111101001
10101100
1111111000010000
1111111000110011
100
1111111101111100
1111110001011110
1111110001001111
1111110110111000
111100
10
1111111011001100
111010
100001010
1111101110
1101101111
1011000000
10100000
10011
10010
101111
1001100
1001111
1111111110110000
1111111111000110
1111111111100010
1111111111110001
1111111010011010
1000101000
1111111011111100
1111111111011101
100101010
10010111
1111111001111001
1111111100010111
1111111111001010
1111111111001101
1111111000010101
11011000
10011110
1111111110101110
1100101
1001011011
10101000110
1100001001
11010010
101110
11
1111111111111000
1111111111110001
1111111111011111
1111111111000011
1111111011101101
110
110
1111111011101100
1001100100
1110010
110000001
1111111100110100
1111110110101111
1111111010100010
1111110101100111
100110010
10111010
10111100
1011001010
101101100
1001101101
111100110
101010101
1110000011
1011100000
10110100
1111111111000011
1110
111
1111111111101110
1111111111110001
100000111
1111111100111111
11110
110011000
10000000
1010111011
100101110
10011000
10100111
1111111010100010
1111110011011111
1111111000000010
1111110101011011
1111111100111111
11110000
11000001
100100011
1001000011
1000100111
1011111010
1110111101
111111110
10101101
0
111110
11
1111111111011001
10100
10100010
100111100
1111111010000000
1111111111101010
11101
111001
101001101
101011001
101011110
1010101
1111110010010010
1111100100010110
1111101010000000
1111101101111100
1111101111010110
1111111010001100
1111110011101010
1101010
1101100
111000000
110100101
1001001110
1101101
0
11010
1010000
1111111111100000
10011
1111111100000011
1111111111110011
1111111111101100
1000110
11100010
101000011
110011100
1010000100
10000111110
11010010011
1111111010001011
1111110110101110
1111110111110100
1111101010001001
1111101010001111
1111101010011111
1111110100100100
1111111001010101
1111110110110111
1111111100100101
0
1100010
10100
11000
1111111111011100
111000
1111111111110001
1111111111011101
1111111001110111
1111111111011011
11111011
101011100
101000010
111101111
111001111
110000111
11100110000
1100100011
1111111011101111
1011110111
1001011
10011011
10001110
1111111000110110
1111111101101100
1111111001000001
1111111101011101
1111111101001011
1111111101000000
1111111111111000
1011010
100110
1111111111110100
1111111111010111
11001
1111111110101010
1111110110110111
11011001
1001100
1111111111001001
100110110
1111111111111110
11100010
10010000001
10100010101
1111111101011000
1111111111111011
100001000
1111111101110001
1011001001
1111110110000111
1111111011100001
1111111100000011
1111111101100110
1111111101110110
1111111110001101
1111111111001010
1111111101001011
1111111101100000
11000
11000
1111111111011111
101
1111111110011001
1111110111010100
1111111100100101
1111111011001111
1111111101010010
100010011
1000010000
110011001
1010100101
10011100110
1111111111110100
101001001
10010100
110110010
10110001
1111111111111001
10101110
1111110101100010
1111111000001001
1111110010111101
1111111111010011
1111111111011010
1111111010001101
1111111011011000
1111111110101100
0
1111111111110100
1111111111101011
110
1111111001010011
1111111011101100
1111111000101111
1111110101100110
1111111110011111
100000000
11100011
101000110
10000100001
1001101011
1111111011000011
1011110
100111
11100011
1111111011011100
1111111011110011
1111101110011111
1111111000000001
10100000
1111111111000011
1111110110100000
1111111000101100
1111111101000110
100
10
11001
1111111111110101
1000111
1111111110111110
1001111
1111111011111011
1111111001111111
1111111101001110
10101011
11011
1011110
101001001
1001100110
1111111011001110
1111110100101001
100000011
1111111110010110
1111111111000111
1111111011011010
1111111101011001
1111110110100110
101101
1111111011010110
1111111000110011
1111110111011001
1111111110011000
1111111111010101
1111111111010010
11010
1111111111101011
1111111111111000
1111111101001101
100111001
110100010
1111111010101001
10001010
10111101
1111111011010001
100110011
1011011100
1010101110
1111111110111111
1111111010101010
1111111101011101
1111110111001010
1111111110100110
1111111110000010
1111111101100101
1111110011001010
1111111100110101
1111111101001000
1111111001010111
1111111011010111
1111111111010100
1111111110010111
1111111111001111
110100
1111111110101000
1111111111011001
1111111010000001
10011000
1111111010101011
1111111001111100
1111
1111111010011000
1111111
101101100
1111111001101010
101110111
1111111101001110
1111111110001101
1111110110100011
1111111101010111
10100011
1111111110111100
11110101
1111111000110101
1111111111100110
1101101
1111111010001100
1111111010111001
1111111110011010
1111111111100111
1111111111101110
1111111111101111
100011
1111111110111011
1111111001011010
1111111111011010
1111111000011100
1111110100101011
1111111110110001
11001
1111111100001110
101111011
101010001
1100011001
11010100
100111001
1111111110111110
1111111101000101
1111111100100100
10101111
1111111101101110
1111111010000011
11010000
11010001
1111111101011101
1111111110010110
1111111111101111
1010
1001
1111
11100
1111111110001000
1111111011111110
1111111101111110
1111111001010001
1111111111110001
111110110
11011101
1111111101100101
100000010
1111111010111101
100111
1111111110110100
110001010
101110
1111111110001100
1111111111010001
1111111100000010
110
1111111111001011
1111111110000110
1111111110001110
1111111111101111
1011
10010
1111111111111001
1111111111100010
1111111110110101
1111111111100110
111011
1111111110010111
1111111011000011
1111111100011101
1111111101111010
1111111001101100
1111111101110010
1111111011101010
1011100
101010011
11000010
1111111010101101
1111111011001110
100100000
1111111110100100
111111
1000111011
1111111101101010
1111111100101000
1111111101101000
111010
1111111111111111
1111111110000101
1111111111111110
1111111111100000
11110
100100
10000
10000101
10110100
0
1111111111101101
1111111101100001
1001110010
110000111
110000111
110100111
100000011
10100100
1101001010
111011110
1111100111
11111
1111111111100011
1001111001
1001010
1111111011110011
100001010
100100010
1011110
1100
1111111110010101
1110
1111111111110010
100111
1111
1010100
1111111111110001
1111111111100101
1111111100010011
1111111100101000
1011100
100100100
100101000
1001010001
110101011
110101001
101000111
11110000
11011100
1111111110010001
100111100
1100010011
10001001
1001000
11101001
11110110
10001111
1111111111101110
10111
1111111111101110
100001
111100
10001
1111111110101011
1111111110000000
1111111010111011
1111111100111001
1111111100001111
1111111001101011
1111111110010101
1111111101010100
1111111011010110
1111111100001010
1111111111010101
11010100
10011111
1111111111110101
1111111110110110
1111111011011010
1111111001001000
1111111110111010
11110110
11101010
100000011
10001011
1111111111000010
1111111111011111
11011
1111
1000001
1111111111101111
1111111111001100
1011110
1111111111100110
1111111011111110
1111111011000001
1111111010010111
1111111000100010
1111110110001111
1111111011100001
1111111110001010
1111111101001011
1111111000100000
1111111010101000
110000
100101
1111111010111000
1111111010000000
1111111101011011
1111111110111111
1111111111110111
1111111111011111
1111111111101101
100111
1111111111110110
1111111111110011
101010
11001
1111111111100000
1111111111110011
1001
11111
0
1111111111110000
1111111110111110
10000
1111111111110010
1010011
10010110
10111
1111111111100101
10011
1111111111101000
1111111111010111
1111111111000001
1111111111000110
11000
1111111111010101
1111111111101000
1111111111100110
100
1111111111110000
100001
1111111110110110
