1111111111100101
110111
1111111111011010
1000
1111111111001100
1111111111111001
10110
1111111111110010
100
11010
1111111111110101
1111111111101111
1111111111110111
1100
1000000
10100
1111111111000010
100111
10010
10
1111111111101011
111100
1000
11111
1010
1111111111101100
11010
1111111111100111
1111111111110010
1111111111011011
1111111111111111
101001
1111111111010010
1111111111001101
1111111111100000
1111111111100011
1111111111011001
111101
1111111111010100
100100
1111111111001000
1111111111101110
10100
1111111111111001
11100
10110
1010
1111111111100100
1111111111110110
1111111111010001
1111111111101001
1111111111110101
1111111111000100
101010
11110
1111111111100010
101011
1111111111011100
1111111111010101
1111111111111100
100
11110
111
1111111111110011
1111111111110010
11110001
100100111
100010110
11001011
101010001
100011001
1101
10011100
101101
100101
1111111111010101
0
1111111111101101
11
1111111111111111
1000010
1111111111000111
1111111111101110
1111111111010101
1111111111101110
1111111111001001
1111111111100011
1011
1111111111010101
1111111110100111
1111111110011111
1111111101000101
1111111110011111
1111111111111001
1111111110101101
1111111111001010
1111111011110000
1111111111001010
1111111111001101
1111111111001101
1011111
1111111111010011
1111111110100011
1111111100101011
1111111010110011
1111111110001110
110111
1111111111111011
1111111111000110
0
1111111111101111
1111111111111101
110011
1111111111110000
1101
1111111111011111
1111111110110000
1111111100011000
1111111110010111
101000
1111111111010101
1110100
1111111101100100
1111111011101101
110
101001101
100100100
110000
1111111010111100
1111111110001010
1111111101110110
101100
10011
1111111010111000
1111111101111110
1111111100010100
1111111110011011
1111111110110101
110011
1111111111110001
1111111111011000
10101
1111111111111100
111001
1111111110100001
1111111011000000
1111111010011110
1101000
101000111
1111001
1001110010
1000111001
1111111111110111
1111110
1111111111000111
1111111100001111
1011110011
1111111111111110
1111111111011011
10110000
10011000
1111111111100111
101
101001
1111111110101011
1111111111111011
1111111111100101
1111111111000111
1111111111110111
101110
10111
1111111110111010
1111111110100011
1111111010011100
1111111101010111
1010000
1110100
11011100
1001110101
10100011
100010000
11011010
10001100100
110101000
100011111
10000111
1100001
100101011
1111111100001010
10001
0
1111111101101011
1111111101110010
1111111101101011
1111111110010010
1111111111011001
1111111110111101
1
1111111111010010
1111111100000100
1111111110101100
1111111100100110
1111111000111000
1111111100001100
11111000
11000110
110000000
100110010
1111011
1110100011
101010011
101110000
111101001
1111110111010100
1111111111100011
1111111111000101
1111110111110111
11011
11010000
1111111101110011
1111111011001010
1111111011110110
1111111111001001
1111111111011010
1111111111111110
1111111111110100
1111111100010011
1111111101100000
10000101
1111111110100101
1111111011011101
1111111101101001
10010101
1111111111001101
110011111
1011110
101010001
1111111101100100
1000011000
101110100
111110111
1111111101000001
1111111010111000
100010110
1111111000011110
100000
1111111110110110
1111111111101101
1111111001111110
1111111101100101
1111111110001100
1111111111111110
1111111111000110
1111111111010100
100001
1111111101110000
1111001
1000111000
1111111101110001
1111111110101101
1111111011111111
1111111100011000
10101101
1111111110011101
1001101111
1111111010110011
1111111110111010
111001
1111111101100010
100101010
1111111100011111
10100010
1111111101101010
1111111110110001
1111111110010110
10011011
1111111101101111
1111
1111111111000000
1111111111010101
10100
1111111111110001
1111111111100110
1111111101011011
11011110
110011000
11101000
11100010
1111111110111110
10010
110110011
100000011
1111111100111001
1111111000000100
1111110011100110
1111111110010001
1111111101000100
100110000
1100001
1111111110110101
1111111001100101
10111100
100
1111111111111100
10111011
1110011
1001
1111111111110011
1111111111111000
1011010
1111111111011100
1111111101111010
11111010
1100110110
1101100100
100000
1111111011111100
11011010
100110100
111000001
1111111010111110
1111101110011100
1111101101011101
1111111011011110
1111111010100100
1111110111110111
1111111001011010
1111111101110101
1111111011011111
10001111
10010111
10001100
100111100
100111
1111111111100001
1111111111000010
1111111111111011
10000
101000
1010110
100000001
110011111
1110100
1111111001110001
1111111111001110
100000
1111110011010011
1111101111111111
1111101011011011
1111100011010100
1111101111101010
1111111010100100
1111110101010010
1111111011010000
1111111100011011
1111111001001101
1111110100100001
1111111011101101
1111111100000101
0
111110
10010011
1001000
1111111111110000
1111111111100010
101100
101100
1000001
1111111111000100
111001
1111110110111110
1111110000110111
1111101111010010
1111110011000110
1111101011001010
1111100101011111
1111101101110000
1111110111110111
1111110111000001
1111111110110100
1111110110111100
1111111010100010
1111111101000001
1111110101110011
1111111000000111
1111111000010101
1111111010111101
1111111110000011
1001110
100000000
111
100100
100011
1110
10100
1111111111101101
1111111101000001
1111111001000000
1111110110010001
1111101101110110
1111101010110110
1111101001111111
1111101111111000
1111110101001100
1111111001000000
1111110011100111
1111101101011100
1111111011000100
1111111000011101
1111111001010000
1111111011001110
1111110110111111
1111110111010111
1111111000110010
1111110101010101
1111111001011000
1111111110111011
1000011
10110110
100010
11
100111
1001
1111111110110110
1111111001110001
1111110110110110
1111110011110111
1111110000100110
1111111000101110
1111111110001100
11010001
1111111101010001
1111110011100011
1111111000101111
1111110110101111
10100000
1111110100101101
1111111111000000
1111111011110011
1111110010001100
1111110011110101
1111110111111111
1111110010111011
1111111011100111
1100011
11000111
1010000
1111111111111111
1111111111100000
100011
1111111111110101
1111111101000100
1111111001001101
1111110111000111
1111110111000001
1111110100001111
1111111100101011
100011110
10011110
1000010
1011101
11111110
1111111010001010
1111110110000011
1111111010000101
1111110001010010
1111110001111101
1111110111101011
1111101110010111
1111110010001010
1111110110100111
1111111101010011
11111011
111000100
1110011
1111111111001111
11001
1101
10100
1111111100111110
1111111011011001
10000
101101
1111111010111100
10110001
100000000
100110110
1111111100100110
100
1111111000011010
1111111000110100
1101111
1111111011101011
1111110010010101
1111101110010010
1111110100011110
1111101111100011
1111110101110110
1111111001100000
1111111100011100
100000001
110011101
1101110
1111111111110000
110001
11000
1111111111101010
1111111111001000
1111111011010010
1111011
11010001
1111101
10111000
1000010011
111001101
1111111101111110
11101011
1111110000111000
111111
1111111001100010
1111110101011110
1111101111011001
1111111010010110
1111111011101010
1111110100111111
10101100
101100010
1010010000
111001110
100100111
1001100
111110
101110
11
0
1111111101111111
1111111110111000
1111111101000010
1111111110111101
100101100
1111111111010010
11000010
101000101
110000100
1111111110110011
1000111111
1001100
1111111100000010
1111111100100111
1111111110111111
1000101
11100001
100010100
100111101
101011011
1010001111
100011101
11010111
1011110
1111111111101001
1111111111100110
1111111111111010
111
101101110
101010110
111011
1010001001
1001001101
11010111
10011010
1010010101
1100110101
1110110000
1111000010
1001100010
1000100011
1001100010
1111000111
11101101
1001011111
1011010011
110100110
11110110
1001101001
100000100
11001010
1111
1111111111111110
11011
1111111111111010
11001010
1000110100
111110100
1011100100
11101000
1111001
1100001
1011001111
110010111
1000100111
11001110
1001001111
1000000110
1000000010
1111011
1001110010
1001111011
1000111100
1111111111000101
10010000
1000001100
1111011101
111100111
100100101
1001010
101010
110010
1111111111110110
10000101
10011010
101101100
1100100011
1010100
1111111110001110
1001111010
1101110001
1111101
1100000
1111111110001010
1111111011111100
110011011
110001111
1101100
1000010010
1111110101
101010000
100000010
1110010000
1001011010
1001110011
110010111
10010011
1100
1111111111111111
1111111111110110
10001
100000
1111111101010010
1111111011101011
1101011
110101000
10001000
1011000
1000101100
11100
110100001
111100011
1111001
1110111
10100000
110000010
11011101
1000101001
1011010110
101111110
10001110000
1110010100
1000111011
10111000
10000110
10000
1111111111010111
1111111111101000
100111
100111
1111111101101101
1111111111100101
1010011
1111111110111101
1111111010110001
1111111111100011
1111111111100000
1111111100000111
1111111111000000
111001
110000
10000010
11111100
1111111110111000
10000110
111001101
110111001
100000101
101011001
110111001
10101101
11100111
10010011
1111111111111111
110
1111111111011001
111
100
100
11100
10000100
10101110
10011101
1111111
1111111101011101
1111111010110001
1111111001110000
1111111100111101
1111111010110010
1111111011000100
1111111110011011
1011100
1010110
1111111110001100
1111111110101011
1111111110100000
1111111110011010
1111111111000001
1111111111010100
1111111111110011
100010
111001
11011
1111111111101100
1111111111001111
1111111111101101
1111111111111001
101010
1111111111111000
1111111111101101
1111111111110110
1000100
1111111110001111
1111111110110001
1111111101110011
1111111111110101
101000
1111111111000111
110000
11100
1111111110010101
1111111110111001
1111111111011100
1
1111111111101111
1
11
1111111111110011
1111111111100111
101110
1111111111101111
110000
1111111111110001
1111111110001111
0
1111111111111111
10000
1011000
101100
1010110
1111111111101011
1111111111111100
1111111111000101
11101
100100
1111111111100100
1010
1111111111101000
1111111111011011
1111111111111111
1111111111010000
1000001
11
1111111111100110
1111111111101000
1111111111110110
110
1111111111011010
111000
