1111111111110010
1111111111010011
100100
11001
10001
1000
1111111111011000
11
1111111111100011
1111111111101110
101000
10001
1111111111111011
10011
1111111111110100
1111111111000101
0
10001
10101
1111111111101010
1
1111111111100101
11110
1100
1111
1111111111100110
1111111111011001
1111111111111000
1111111111110001
1111111111000110
1000100
1111
1101
10111
1
1111111111111111
1111111111111101
1111111111111111
1111111111111101
1111111111110011
10
1111111111001011
11011
1111111111111010
11010
1101
1111111111100110
101011
1111111111111001
1111111111101000
11010
1110
10110
11
1001100
100111
11010
1111111111111010
11010
10
1111111111011011
1001
1111111111101101
1111111111111101
11110
1111111111011100
1111111111100010
1111111111101011
1001111
10011
1111111111011110
110101
1111111110111010
1011
100110
100101
11000
1111111111101001
1111111111010011
100
1001
1111111111010001
1111111111110101
1111111111001000
1011
1111111111111000
110000
1010
100111
1010
101100
1001110
1111111111001110
11111
1111111110111000
101010
1000
1100
1111111111101111
10010
1111111111001101
1001
110000
1111111111111001
1111111111010000
10000
0
101110
100001
1111111111110101
1111111111010101
1111111111110110
1111111111000110
101001
101101
100
1111111111010001
1111111111111000
1111111111010100
1111111111110101
1111111111010000
1100
11001
1010
1111111111010111
1101001
1111111111110111
1111111111111111
1111111111100111
1000010
1
1001
10111
10000
1111111111111110
1111111111000000
110010
1111111111111110
1111111111111010
1111111111100010
101
1000
1111111111100110
1111111111100111
0
1001
0
10111
1001
1111111111111110
100010
1111111111110010
11110
1111111111110101
0
101010
1111111111011001
1111111111111000
1111111111111101
1111111111101001
10101
100000
10
1111111111100100
100
1111111111011011
0
11100
1111111110111111
1111
1111111111110010
10001
1111111111101111
1001
1111111111100100
1111111111011101
1111111111100101
1111111111011010
1111111111000111
1111111111011111
1111111111101111
1111111111100101
10
1111111111011001
1111111111100101
10100
100000
1111111111111101
1
1111111111010001
1010
1111111111011111
1111111111011010
1111111111001111
1111111111111100
1111111111111100
101111
100
1111111111111101
1111111111111000
101001
111
11011
1100
1111111111001000
1111111111100000
11011
1111111111110110
1111111111101100
1111111111011011
1010000
10001
111010
1111111111101000
111101
111101
1010
1111111111010001
1111111111011101
10
1111111111111110
1111111111011110
11001
1000
1111111111110001
1111111111111001
1111111111000000
11
1111111111011100
11
1011
1111111111101000
11001
1111111111001111
100011
110
11011
100
1111111111110100
1111
1111111111010010
1111111111100010
1111111111101000
11011
101010
10000
111111
1111111111110110
1111111111100101
10010
1111111111011111
1110
10000
1111111111000111
111110
1111111111011010
0
1111111111100111
101011
1111111111010001
10000
1111111111100001
11101
11110
11111
1111111111110011
1111111111110111
1111111111100100
100
1111111111001110
1111111111111011
1111111111001001
11010
1111111111110101
1000100
1111111111010110
101101
10
101001
1100
11100
10100
1111111111110001
1111111111110111
0
110100
11
1001
1111111111100010
110010
1111111111100100
1011010
1111111110101100
10111
111
1111111111111011
1011100
1111111111101111
1111111111110110
1101
1111111111111111
1111111111111111
1000010
1111111111110001
1111111111110000
1111111110101101
10010
1111111111100110
1111111111101010
1111111111010001
111
1010001
1111111111110001
1111111111001010
11111
1110
10001
1111111111100110
1
1111111111110101
1111111111110100
1111111110111010
1100
111
1111111111111110
100000
11010
10101
1111111111000001
1111
100111
0
1111111111100100
1111111111101111
1111111111100001
101
1111111111100000
100011
0
1111111111101100
1111111111000110
0
1111111111000110
1111111111100111
1111111111010010
1111111111110101
1111111111110111
1111111111100001
1
110000
1111111111111011
111
10100
0
1111111111010000
1011
100000
1111111111110011
1111111111111100
1111111111111001
1001
1111111111101011
1101
1111111111111011
1111111111101011
1111111111101001
1111111111110000
111100
10101
100
1111111111100101
1111111111101101
1000
1111111111110001
1111111111111110
110011
11010
1111111110101110
10100
1111111111111110
100111
1111111111010101
1111111111100101
1111111111011000
10101
1010
1111111111001101
1111111111110011
1111111111000110
100000
1111111111100101
1000
1111111111111111
1111111111100010
110
110111
1111111111111110
1111111111111101
1111111111011111
10
11110
1111111111110100
100
1111111111101100
1111111111110001
10100
100111
10
11110
1
10100
1101
1110
1111111111111011
1001110
1101
110101
111
11111
10000
10111
100110
1111111111111010
11011
100011
1111
1111111111011111
1111111111110101
1111111111101111
1111111111100100
10101
100011
1111111111101010
1111111111010001
1111111111011100
1111111111011110
1111111111111110
1111
100
1111111111110000
1110
1111111111100110
1111111111001011
110
11110
1
1111111111111100
1111111111101001
10111
11010
1
1111111111111110
111
1111111111110111
111001
0
1111111111111001
1111111111011001
11000
110100
1111111111010010
1111111111111000
1111111111001100
111110
1111111111101101
1111111111100111
100111
1000
111
1111111111101110
1111111111101011
1111111111011101
1111111111110110
1111111111110111
10101
1111111111011001
1111111111111001
1111111111110010
1111111111111000
100111
10011
1111111111110011
1111111111110100
1000110
1111111111111011
1111111111100000
1111111111101000
1111111111100111
110101
100010
110110
1111111111011110
1111111111100100
1111111111010100
1111111111101100
1111111111111000
1111111111111100
1100
1111111111111111
1111111111001111
1000
1111
100001
11011
11000
1111111111101110
1111111110111110
110000
1111111111100100
1111111111110100
1111111111110000
1111111111101101
1111111111110101
10011
1111111111001000
1
1111111111111001
1111111111101100
1000010
10111
11
1111111111110101
1111111111111001
1111111111111000
1111111110110101
110
1111111111010101
1111111111110000
1111111111100100
1111111111011011
1111
1111111111011110
1101
1111111111110111
1111111110111111
1111111111111111
1001
1101
10110
110110
1111111111100000
1111111111111110
1111111111111111
1000
1111111111011010
1111111111101001
1001
101001
1
10
1111111111001011
1011
1111111111101100
1111111111011101
10100
11
1111111111010110
1111111111011101
111001
10111
1111111111001000
1111111111101011
1111111111001101
11011
10011
1111111111111010
1111111111111010
1111111110111001
1111111111011111
1111111111111010
101000
1111111111110101
1010
1111111111111110
1111111111101110
1111111111011011
1010
1111111111110011
110011
1111111111010001
11001
100010
1111111111011100
1111111111011111
1111111111010101
111111
110010
1000
1111111111111110
1111111111011010
1111111111101110
1111111111011001
101
10001
1111111111000001
10000
1111111111100100
1111111111110010
11
1111111111011100
100001
1111111111001111
1111111111011100
1101111
1111111111101110
1101
1001100
1111111111101101
100100
10010
1111111111110100
10011
101110
1111111111100000
100011
1111111111100111
1111111111101101
110010
1111111111001011
1111111111111110
11101
1111111111100111
111101
1111111111101110
11110
1111111111111110
1111111111110000
1011
11000
1001011
1111111111011110
0
1111111111110000
1111111111110110
1100
11000
101111
1
1111111111111100
11100
110101
1111111111011100
11001
1111111111001111
1111111111111001
1100100
1111111111111011
1111111111110100
1111111111111010
100110
1111111111110110
1111111111110010
1111111111011111
11100
111
1111111111000111
1111111111100101
1111111111111110
1111111111100000
1111111111011010
111
1111111111011101
1111111111001010
0
10001
1010
1111111111000110
101011
101011
1111111111101111
1011
0
1111111111100110
1111111111001110
101110
1111111111010001
1111111111110100
1111111110111100
11011
1010000
1111111111110001
100101
110000
1111111111001110
1111111111110100
1111111111101011
1111111111111110
11110
1111111111111011
1111111111011000
1111111110111111
1111111111111011
101101
1111111111111111
1
101000
1
1111111111101110
1111111111010100
1111111111111011
11000
1111111111011100
1111111111111100
1111111111111010
111
1111111111110101
100001
1111111111010000
100110
1111111111011000
1111111111110011
111
110
1111111111001101
10010
1111111111000011
1111111110111110
10
10011
1010
1001
1111111111011010
1111111111100100
11010
10110
10100
101
1110
110110
10
1111111111011000
110111
1111111111111000
111000
1111111111100001
11010
0
1111111111110011
1110
1000
100101
1011
10
1111111111110011
11101
110000
110
110010
1111111111011001
1111111111101110
1111111111101010
1111111111011111
1111111111111111
1111111111011001
110101
1111111111101100
1111111111110010
1111111111011001
100000
1111111111010011
1111111110100001
101100
10011
1011011
1111111111100100
100110
1111111111111011
11
10000
1111111111111101
100100
11000
101011
1100
0
1111
10001
100000
1111111111111001
10110
11100
101
1111111111111001
1111111110101111
