1010101
1000101
1111111111101100
1111111111010010
1111111111000001
1100
1010001
1111111111110111
1111111111110000
1111111111010110
10
1111111111111100
1111111111000111
101011
1111
1111111111111101
1111111111001111
11000
10110
1111111111100010
1111111111101010
110011
11000
1111111111010111
1111111111000101
1111111111111000
1111111110111111
1111111111011011
1000
1111111111110101
1111111111110101
0
1111111111110001
11011
1111111111000111
111
1111111111111111
1111111111010101
1111111111101110
1001
1111
1111111110110010
1111111111100011
1001001
111011
1111111111111111
1111111111011010
11111
1111111111110110
1111111111001110
1000
1010
10100
1111111111101110
100110
1111111111101010
10110
10
1111111111111001
1111111111110010
1111111111101100
110100
100
1000010
1111111101111101
1111111100011110
1111111011101101
1111111110011001
1100
110101
1111111101110000
11000110
10011010
10001010
11100001
100010101
1000011
1111111111010001
1111111111011100
100011
1100
10
1111111111101100
1111111111101000
11101
11011
101100
100
1111
10000000
110
1011011
1111
110100
1111111111100110
1111111101000110
110
100111011
1001010
10000100
11001011
1111111110100000
0
1111111111111111
10000101
100011000
111101
1111111110100111
1111111101101101
1111111111101011
110
1111111111110100
1111111111111011
1111111111100100
10100
1111111111110000
110110
1000110
101111
10
1101001
111100
101001010
1111111110011100
1111111111001011
1111111101101011
1111111111000110
110010
1111111011011111
1111110111001011
110111101
1111111011111000
1110100
110000010
1100100
100100
100110011
11101011
11101
1111111111101010
1
11110
1111111111001011
1111
1111111110011001
111010
1111111111000100
0
1111111101110101
11001
1111111100001101
10000010
100001000
11010100
110010
111000101
1000100000
1111111010100100
1111111101001010
1111111100111011
1111111101111001
1111111011000010
10101
100000
10010000
10010011
1111111111101010
11111
1111111111010110
111
1101
1010101
1111111110001100
1111111110010000
1111111100111110
1111111000010001
1111111010011100
1111111111010100
1111111110100000
111110
10000100
1010110
101010101
111101011
1100001
1000010010
110001111
10101
11000111
10100
1101110
1111111111011110
1000111001
11111110
10100100
10111
1111111111111011
1111111111100000
110100
1111111110100101
1111111100111001
1111111101100011
1111111101011100
1111111000101001
1111110110011011
1111111100111001
1000011
1111111110001011
11111011
1111110100011100
10011000
101101101
110100010
1111111101
1111111110110001
110010100
111001100
1111111101101101
111011100
1011100111
1011100111
101011010
101001
1111111110111000
1111111111000010
1011
10000
1111111110100000
1111111011101001
100101
10101100
1111111010110110
1111111010110101
10011100
1111111100001010
1111111101000100
1001000010
11001
110011011
1111111110111111
1111111010011100
1111111100000100
111000010
101110000
1111010011
1010001010
1101001110
1101101001
100101100
110101
111111
1111111111011011
100011
1111111111111100
1111111110111011
1111111110010110
1111111011111001
1111111101110111
10001011
101100011
1000010
1111111011010111
1111110111000111
101001
100101011
1111111111001101
101100111
101110011
1111110010011011
1111110010111010
1111110111100011
1111110001100000
1111110101011100
1111111001001011
1111111011101101
1111111001100001
1111111011100110
10000
101001
1111111111111110
10010110
11001
1111111111001001
111010
1111111111010101
1111111110111001
1111111110110011
11010111
1111111111010110
1111111111100111
1111111110100101
1111111100000001
110000100
101101
10110001
1110110
1111111001010010
1111110100100110
1111101001001111
1111101000100011
1111100011001101
1111101001011100
1111101101001100
1111101111111001
1111111000011111
10101
1111111111111101
1111111111110101
100
1111111111101000
1111111111101011
10101001
100110101
11011
1111111110010001
1111111001110000
1111110111001001
1111110100000110
1111111100100000
1111111001101011
10000101
100010010
1001000111
111101001
111101
110000100
1000110001
1111111000000000
1111101111001010
1111101100000001
1111101000110010
1111110000110111
1111111001000011
111101
11100
100011
11010
11110
1
1011101
101010100
100000110
1111111001111100
1111110011100101
1111111110000110
1111111010010000
10000100
1111111101011000
1001111111
110110100
111101010
111101100
110010111
1111111110111011
10000110001
100100010
1111111010101010
1111111001001110
1111110010111000
1111110101010011
1111111100110011
1111000
1101010
10110
1111111111111010
101100
10110
1100
1101101
1111111111010110
1111111000110101
1111111000100111
100011000
1111111100100110
1111111110100010
1111111101110000
10100111
10111100
1111000111
1111111111111010
11011101
1111111110101001
1111111001010111
111
1111111011100101
111111
1111111001000111
1111111010001011
1111111110000000
110111
100101
1111111111111011
1001100
1000010
110
1111111111110010
1111111100011001
1111110111011000
1111101100101111
1111101000011100
1111110000111011
1111111010110101
1111111101010000
100101001
101100110
1111101111101110
1111101111
1
1111110100101101
1111111010101111
111101100
101110011
110000
1111111111101110
1111111111101111
1111111110011001
10100
1111111111101010
1111
1111111111010101
10001
1111111111110101
11
1111111110100010
1111111100001111
1111111100101000
1111110100011010
1111100010100110
1111011011111110
1111011111010110
1111101000010101
1111110000110000
100110011
1111111010000001
1111111111110011
1111111110101110
1111111100101110
100111
1111111111100101
1010110
101011101
100000101
10111001
1111111101010000
1111111110000010
1111111110101110
101
10011
1111111111011111
1111111111110011
110010
1111111110110001
1000000
110100101
10010010
1111110101000100
1111101100101111
1111011010100001
1111011100010100
1111011111001101
1111101100011110
1111111000001111
1000101
1101111
1111110100111111
10000110
1100011
100010110
110010011
1111111110001011
1111111101101100
1000011
1000010
1111111011000101
1111111110111010
111
11011
1101
1111111110100001
100111110
1000101000
1111000
1000111011
1011011101
101000110
1111110010011011
1111101100001000
1111101001011000
1111101001100000
1111110100010000
101110
1101000
1011010
10110001
101000000
1100001010
111011111
1111111101101100
1111110111011011
11100110
1111111101100010
1111111010111010
1111111110001000
1111111110111010
100111
10001
1111111111000001
1011000101
1010101110
110100011
1110101110
1011101000
111010111
1000000
110001
1111101110111111
1111100111101011
1111111010111100
1010000001
1011011011
1111111110011110
11011011
110011000
1001000
1111111111111110
111
1111111011000000
1111111011100110
1111111101001010
1111111101011110
1000011
1011
1111111111101011
10100
101000
1000001000
1001010010
1100101111
10011011011
1011100110
10000011000
1011011100
1110101000
11000111
11001001
1000000001
11101011
1111111110111010
110101
1111110111011100
1011000
1111111100110100
1111111110100100
11001010
1001001
10010
1111111111110011
1111111111110011
1111111111100011
100001
1111111111100111
1111111111110111
1011101
1111111110000010
11111000
1011100101
1011000011
1011010010
1111010011
1110011011
1010010110
11101001
11011
1111111111100110
10011110
1111111101101100
110001101
110111000
11110
10001010
1111111111101110
1111111111110010
1111111111000010
1111111011001001
1111111110011010
1100
10111
10000
1111111111101101
1111111111011001
1111111100111110
1111111100100110
1111111101101000
11010
111110
110110010
1111111110100101
1111111001000001
111000000
1111111101111110
10111101
101011100
101011010
10010111
1111111111100011
1111111110100100
11001101
11101
110101110
1111111100011001
1111110100101100
1111110111000101
1111111110110011
1111111111111110
1111111111111011
11001
1111111110111011
1111111111100100
1111111110001100
1111111101100010
1111111010100110
1111111001110100
1111110101101111
1111111100001111
1111111110110100
1111111111101101
1000000
101010
101001101
1101010
100100101
1000001111
111111110
10100111
1111111111001110
110011
1111111110100101
1111111000111010
1111111001011010
1111111010001111
1111111101000101
1111111101101110
10000
1111111111111101
1111111111011100
100100
100110
10010001
1100000
1111111111110010
1111111011011011
1111111010100011
1111111001010011
1100110
1111111111100010
1101001
101001010
10101100
1111111101001100
111100101
10011001
100011100
101000100
0
1111111100100111
1111111000111010
1111111010001010
1111111110000010
10010
1111111111100110
1111111111101101
1111111111010111
100001
10110
110
1000000
10001001
11001111
11000010
11110100
100100
1111111010110111
1111111110011101
1111111101011101
1111111110001011
1111111101111110
1111111110100110
1111110111101001
1111111010010110
1111111111111101
1111111011010111
1111111001001111
1111111011110000
1111111000000101
1111111010111010
1111111111000111
10
1111111111110010
10011
1111111111110100
110110
1111111111100101
110
1111111111111111
1111111111101100
1111111111111111
1001100
111001
1001100
101101011
110110
1000
1111111110110011
1111111111011000
1111111000110100
1111101110111111
1111110110100110
1111111010110111
1111111100010011
1111111110000010
10011
1111111111111001
1111111111101111
1111111111110100
1111111111101011
1111111111000001
1111111111001100
1111111111100101
1111111111101000
1111111111010110
11010
0
11011
1111111111110011
101110
110001
1111111111110110
101011
11100
1001101
1111111110111101
1000101
1111111111010011
1111111101011010
1111111111000010
1111111110100110
1111111110100101
1111111111111110
1111111110100001
110110
1111111111111010
1111111111011110
1111
1111111111100011
100010
1111111111101101
100001
1111111111101111
1011
11111
110
101001
11000
1111111111100011
1111111110110010
1111111111110010
1111111111110011
1111111111001111
1111111111001011
1111111111011100
1111111111000100
1111111111110011
1111111111111101
1111111111001111
1111111110110001
1111111111110100
1111111111100111
1111111111001001
1100
1111111111010101
1111111111011100
1111111111000001
10110
1111111111111100
