1111111111110111
1111111111111101
1111111111111011
100
1010
1001
11101
1111111111101100
10100
11101
1111111111111111
101011
1111111111101000
1111111111110011
10110
1111111111011110
10010
10001
1111111111111100
10101
101
1111
1100
1111111111100100
1111111111110011
1111111111110001
11
1111111111110101
1101
1111111111001111
10101
1111
100100
1111111111001010
10000
1111111111111000
1111111111101011
1111111111110101
11010
1111111111110111
101001
11001
1111111111011010
1111111111101001
1111111111101011
1111111111100110
100010
1111111111110010
100
1111111110111101
1111111111100110
1111111111101111
101001
1000
1111111111101111
10
1111111111011111
1111111111110001
1111111111101011
101100
101000
1111111111111110
10
11011
0
101010
10101
10111
1111111111111011
1111111111110111
110000
10110
110011
11101
11000
1111111111111110
111100
10011
1111111111100100
1111111111011011
1111111111111001
10001
1111111111110001
100000
1111111111111101
11100
1111111111100011
1101
1111111111011011
1111111110111001
1111111111010000
10001
1111111111110101
1111111111100100
11000
1111111111011110
1110
1111111111111100
1111111111101011
1111111111110100
101
11100
1111111111110100
1111
1111111111110000
110000
11001
1111111111111100
1111111111110000
101000
101
1111111111101010
111
1111111111101101
1111111111111001
11101
1111111111011000
1111111111110110
11
1111111111010100
1111111110110110
1111111111101101
10
1111111110111110
101111
1
10
10001
111
111
11011
10000
1111111111100100
100
1111111111100001
1111111111110000
1111111111101011
110001
101111
1111111111000101
10001
1111111111011010
1111111111101000
1111111111100010
11010
100110
1
1111111111100000
101001
1111111111110101
1010001
100
101101
1111111111110100
1111111111011101
11101
1111111111011100
10010
1111111111001111
10010
100000
10
1111111111111010
1111111111100110
11000
1000010
1111111111111100
1111111111111111
1100
1111111111000011
100000
1111111111100110
1111111111110100
11
11101
1111111111110001
1111111111110100
1111111111101010
100010
1111111111101001
1111111111100111
1001011
1111111111101011
100100
1111111110011001
1111111111101001
10110
100110
1111111111101111
11010
1111
10
1111111111011011
1111111111111110
10010
110101
1111111111000110
1111111111111110
10101
10111
1111111111111100
100000
1111111111101111
101101
1010
1111111111111101
1010111
1111111111010101
10111
1111111111111000
1111111111100001
1111111111100110
101101
1111111111100101
1111111111010111
1111111111101110
111011
10000
1111111111110111
11
10010
10110
11
10101
1111111110101101
1111111111101110
100100
10000
1111111111110100
1011
11101
11001
1111111111000001
1111111111110010
110011
1111111111100101
1111111111110100
101101
1111111111010000
100011
1111111111100001
10101
11000
1111111111110110
1111111111100100
1111111111000110
11001
100001
110000
10001
110110
1111111111001110
11001
1100
110
10110
1111111111111100
10111
1111111111101011
100
1001011
1111111111100100
1111111111111111
1111111111101111
1110
1111111111111101
10101
1111111111100011
1111111111100000
1111111111100001
100001
10000
10001
11101
1111111111111001
10111
1111111111000100
11000
1111111111111111
10100
110101
1111111111111000
1111111111010111
1111111111011111
1111111111000111
1111111111001110
1111111111101000
11
1111111111111100
1111111111101100
100001
1111111111101010
1000110
1111111111110101
1111111111100101
1000
1111111111101010
1111111111011000
1111111111110100
1111111110111111
1111111111101110
1111111111110101
111
110001
11101
1111111111111010
1111111111101001
1001
1111111111111110
1111111111101111
111
1111111111111111
1101
100111
111110
111
100
100111
100011
1111111111110000
11
1111111111111100
10001
1111111111110010
1111111111100000
1111111111010000
100111
1111111111111000
1010
11001
1111111111111111
1111111111101100
1101
101011
1111111111110101
10
1111111111111010
11001
1
1111111111011000
1111111111101100
10110
1111111111100111
100000
1111111111100100
1111111111011001
1111
1111111110110110
100
110101
1111111111101001
1111111111011101
1111111111111001
1111111111101110
1111111111111100
1111111111010000
1111111111110001
1111111111101000
100010
10
1111111110011011
1111111111011101
1111111111111111
1111111111100111
11100
1011
11101
10011
10011
111111
1111111111111010
11
1111111111110011
10000
1111111111011100
1111111111100011
10100
110010
110
110
11111
1111111111110010
110110
11100
1111111111111010
1111111111110111
1111111111111110
101110
1111111111110101
1111111111001101
1111111111100101
1111111111101111
1111111111000000
1111111111101111
1111111111101100
101001
101
100111
100011
1111111111100011
1111111111010101
101
100101
100111
1111111111010101
101101
1111111111110011
0
1111111111001101
11111
110100
1111111111111100
1111111111011111
110
110
1111111111111100
1111111111000110
1111111111110111
1100011
0
10000
1
10100
1111111111110010
111
1111111111101111
110000
1111111111100111
11010
101
11001
1001
1111111111101100
10001
1111111111111001
1001
1100
10001
1111111111100001
1001110
100
11
10111
0
1010010
1111111111001100
1111111111001110
100
1111111111010111
10110
1111111111001101
1111111111011011
1111111111101100
1101
11111
1111111111110100
11
1111111111101101
10001
101001
1001
10101
111110
1111111111101000
110001
10001
1111111111011000
0
10010
100110
1
1111111111111100
1111111111110011
101110
1111111111110000
100
1111111111101101
1001
1111111111011010
1101
11111
1111111111111011
1111111111011011
10110
1111111111100001
1111111111101010
1111111111101111
1111111111111100
1111111111111000
1111111111011001
100101
101000
100110
1111111111101101
10010
1111111111011010
1000011
10010
1111111111011101
1010
1100
1110
1111111111101100
1111111111111101
1111111111001110
11
11010
1111111111001001
1111111110000100
10010
1111111111001110
1111111110111000
1111111111001110
11110
0
1111111111000011
11000
100101
1110
1111111111110110
1111111111111010
11001
100001
111000
10111
1010
1111111111100011
1111111111001001
1111111111010111
100100
1111111111110111
1001000
1111111110111101
1111111111100111
100000
1111111111111110
1111111111101101
111011
110001
10101
1111111111111010
1111111111101010
1111111111100000
1111111111011111
1111
1111111110111001
1111111111100100
1001000
1111111111111110
1000
100001
1111111110100011
1111111111111010
1111111111010110
1111111111100010
1111111111011001
1001
1111111110111010
1011
1000
1111111111101011
1101
101010
100111
100111
11111
110110
1111111111111111
10101
110111
110101
100010
10
10100
1111111111011101
10111
1111111111110011
111
1111111111000100
110
1111111111101001
100010
1100
11110
1101
1110
11
10101
1111111111111000
10
1111111111011011
10
10001
1111111111100100
1111111111110010
1111111111100100
0
1111111111111111
10100
1001
101011
10010
100000
11111
110
1111111111110000
1000010
1111111111110111
1111111111010010
1111111111110100
1111111111010010
11010
1111111111101001
10
1000
1111111111011001
1111111111110101
1111111111000101
1111111111111011
1111111111111101
100101
1111111111101011
1010
11010
1111111111101111
1111111111111110
1111111111101111
11000
1100
10111
1111111111111010
1011
1111111111101111
1111111111101111
110
1111111111111001
100001
1111111111011110
1111111111111110
1111111111011000
10010
1111111111110111
100
1111111111100101
1111111111010101
1001110
100
100111
100101
1111111111110100
11
1111111111110000
101101
0
110
1111111111110101
1111111111101010
100111
1111111111011001
11010
1101
1011
1111111111011011
1111111111110101
1111111111110000
1111111111010010
101100
0
1111111111100101
1111111111001000
1111111111001001
1111111111111101
101100
1001
1111
1111111111111100
1111111111110100
1111111110110011
10010
100111
101000
1111111111100111
1111111111011010
1111111111011100
11111
111
1111111111001101
1111111111010101
11111
111
10
1111111111001001
1111111111101101
1111111110011100
1111111111110010
10000
1111111111010000
10010
101010
11000
1111111111010000
1111111111101110
1111111111000010
1111111111011011
1111111111011110
1111111111110100
1010
1111111110111110
1111
10000
10111
101001
101110
1111111111100001
1111111111111111
100010
1111111111101000
1111111110111010
1111111110110111
100110
1111111111111111
1111111111110011
111
1111111111001111
11101
1111111111100000
1111111111110010
1111111111001110
1111111111110010
11010
1
1111111111110011
1100
1111111111011111
100111
10110
1111111111100100
11000
1111111111111100
1111111111100111
11100
101110
10011
1100
1111111111101001
1111111111100101
110000
1001
1111111111100101
1111111111101101
1111111110110111
101100
1011
1
11110
1111111111111111
1111111111101101
1010
1111111111101101
1111111111001100
1111111111111010
1111111111010110
100111
11000
1111111111101100
1111111111111111
1111111111101001
1111111111010010
11
1111111111111101
1111111111100000
11111
111
1111111111100100
11110
1111111111111111
1111111110111110
1111111111100000
1111111110101011
1111111111011100
1111111111110000
1111111111110001
110
11100
