1111111111000001
111101
1111111111110101
1111111111111011
1110
1111111111110010
1111111111010110
1010
1111111111011100
101011
110011
1111111111111100
10011
1010
11100
1111111111010110
1111111111101111
1111111111111111
1111111111001000
101
1111111111100010
1111111111010011
1011
100000
1111111111110011
1111111111101011
1111111111110100
1111111111110110
10110
1111111111010010
1111111111111010
1111111111111111
101
1111111111101011
11110
1110
1111111111101111
1111111111101100
1111111111111110
1111111111110110
1111111111011100
1111111111010110
10
1101101
1111111111011100
1111111111100011
111111
1111111111110011
11111
1111111111111101
1111111111110000
1111111111111001
10000
1
1111111111111011
1010
10111
1111111111101111
1111111111100101
10010
1111111111011100
1111111111010100
1111111111101100
1111111111011011
11100
111110
1110
110110
100
1111111111111011
10101
1111111111101011
1111111111111001
1111111111010000
1111111111110101
1111111111111001
1111111111101111
1111
1100
1111111111000001
0
1111111111110110
10001
11001
10001
1111111111010110
1111111111111011
101
110110
1111111111100101
1111111111100000
10010
11
1111111111100010
1111111111110011
1101
101010
1111111111101100
1111111111110001
1111111111111110
1001101
100001
1000111
10010
101111
11110
101100
111111
1111111111001001
1111111111010111
1111111111101001
1111111110111110
1001
1111111111110100
1111111111101010
1111111111101011
1111111111001111
1111111111101001
1111111111011101
1111111111010001
0
10101
1111111111100001
1111111111100001
1111111111100000
1111111111101111
10000
100
100101
0
101
1111111111111011
1111111111101100
1111111111110001
111
1
1111111111111111
10111
10001
10
100100
1111111110111100
1111111111100100
101000
1111111111111000
111
11111
1111111111011000
11
101111
1111111111110011
1111111111001111
100011
100000
1110
0
1111111111011100
1111111111110100
10010
1111111111100010
1111111111101101
1111111111101010
10110
1111111111110110
1111111111011111
1111111111010011
1111111111100011
1
1111111111111001
11110
1101
1111111111111001
101001
1001
11111
11111
11
1111111111111111
1111111111010111
1111111111111111
1111111111010110
1111111111101101
10
1101
1111111111100000
110
1111111111101001
1111111111110010
1111111111001000
11011
1100
1111111111001010
110
1111111111011100
1111111111010110
1111111110110111
1111111111000011
1111111111111010
1000101
1111111111011101
110110
1101
1111111111110111
10101
1111111111111111
10101
101000
1111111111111000
1111111111101001
1111111111110110
1111111111110000
1111111111011111
1111111111101110
1111111111101100
110100
10010
101101
110101
1111111111011111
11
101000
110
1111111111101011
1111111111011011
10001
11001
101010
1100
1111111111111110
1111111111011101
10100
101
10
1111111111111010
100
1111111110110111
1111111111011101
1111111111001100
10100
1111111111101010
111110
1111111111111100
10101
1111111111111111
10100
11
11101
1111111111101110
100010
1111111111101101
110011
1111111111011101
0
1111111111110100
11110
1111111111011011
1010
1111111110110110
110
1111111111111100
1100
10000
1111111111101101
110
1111111111110010
1111111111100010
11111
10
1111111111100111
0
1111111111110010
10111
1111111111101010
1111111111110011
1111111111101110
110
1111111111111111
1111111111010000
0
1111111111111100
1111111111101100
1111111110110001
1111111111111000
1111111111101001
110010
100100
1111111111110111
1111111111000010
10100
101100
11110
1111111111101001
1111111111010101
100110
1111111111011110
100
1111111111010011
101100
1111111111111000
10001
10010
101000
1111111111010111
11101
100100
1111111111110010
10010
1001111
101101
0
101001
1111111111100001
1111111111111101
110
1111111111101011
1111111111111111
1111111111011110
0
111
1111111111101010
11001
111010
1010
1100
0
1111111110101100
0
1111111111110000
101110
1111111111010100
1111111111101010
1111111111001010
1111111111011101
1111111111111101
1000
1111111111011101
11000
1111111111100100
1111111111011001
10101
1111111111010100
1111111111101101
1111111111110101
1111111111111010
1111111110110101
101101
111001
1111111111110010
1111111111110001
1111111111101010
1111111111110110
0
101100
1111111111111010
10001
1111111111100011
100000
11010
1111111111101100
1001101
10
1111111111001100
1111111111100001
1111111111101110
1111111111101001
1001
1111111111101000
1111111111110010
11110
1111111111000010
11
1111111111100011
1111111111001001
101000
1111111111101100
101110
10000
10000
1
1111111111110001
1111111111010000
100000
11001
1111111111101110
100110
1111111111110111
1100
1111111111111111
100111
101110
1111111111100001
1100
0
1111111111100100
1111111111001100
11
110
1111111111011011
100011
1111111111011001
1111
1111111111101000
1111111111011001
1111111111110110
1000
1111111111110101
1111111111000110
10000
1111111111111010
1111111111011000
1111111111111110
111110
101101
1111111111101100
10001
11011
1111111111011101
100010
1111111111101101
1111111111000001
1001
1111111111100110
101111
1111111111101110
1110
10111
1111111111100100
10000
1011
1111111111100010
1011
1111111111100001
1111111111101011
1111111111001011
11101
1111111111100110
1010
10111
111100
10010
1111111111101011
11110
1111111111100101
11100
1111111111101010
1111111111111110
0
1111111111101100
110000
1111111111100000
1111111111111111
11000
1111111111111110
1110
11111
1000
10011
1111
1111111111011111
1111111110100100
1111111111110111
100000
1111111111110011
1001
100101
11011
1111111111100000
1111111111101010
1111111111111100
1111111111100010
1101
1010
1111111111010101
10010
1111111111011101
1111111111111000
11011
1111111111111101
10101
1001110
1111111111101001
11000
111
101
1111111111100111
10101
1111111111111110
10010
1000
1000
1111111111110010
1111111111101111
1111111111101010
1111111111011111
1111111111111101
100010
100000
100001
11100
100000
11100
1010
111100
1111111111011101
111010
1001
1111111111100010
1111111110110101
11110
10100
10010
1111111111001011
1000
1111111111000101
11011
1111111111111111
100010
1111111110111110
1111111111110100
1111111111110110
1111111111010100
1110
1111111111111101
100100
0
1111111111111011
1111111111011110
11010
1111111111111000
1111111111100111
101
1111111111100010
10111
1111111111110111
1010
10
10111
1101
1111111111101110
100010
1111111111000110
101000
1111111111111111
1111111111101100
1001001
10001
10011
0
1111111111000100
110101
1111111111101001
10000
11010
1111111111100110
1101
1111111111000111
110100
1111111111001001
1011
10001
1111111111110000
10
1111111111101001
1111111111111000
1101
1010000
1111111111110011
1111111111101000
101111
1111111111011100
1111111111101001
1111111111100010
1111111111111010
1111111111110010
1101
1001101
1111111111110010
10111
11000
1111111111100101
1101
110
10110
1111111111100001
11011
11100
1111111111010010
100010
0
1111111111101010
111001
1111111111111000
1111111111010110
1111111111100001
1111111111101110
1111111111100000
11101
1111111111110001
100010
1111111111101110
110100
1111111111100110
1111111111110001
1101
0
1111111111110011
11011
1111111111100100
11010
1111111111011111
0
1111111111110111
10
11
10100
1111111111100100
1111111111111010
1111111111010011
1000
1100
1111111111011101
1111111111110110
10001
1110
1111111111000010
10001
1001
1111111111111001
0
1111111111100000
101
10000
1111111111101010
1111111111010000
101100
10110
1111111111101100
101011
1100
1111111111010010
1110
1111111111100101
1111111111111011
111
110
1111111111101101
101011
1111111111100001
10011
1111111111110011
11
11010
111
1111111111011000
11000
1111111111011001
10001
10100
11110
1111111111111000
11101
1000
1100
1000
1111111111101011
110011
1111111111110011
1111111111010101
10000
11101
1111111111011111
101001
1111111111100010
101101
1111111111011101
111110
1111111111100110
1001
100100
10010
1111111111100011
1111111111110011
1111111111010101
101010
111
1111111111111111
10
10001
1111111111100100
1010
100111
1111111111100010
1111111111011111
11100
101
1001
100100
1000101
1111111111111000
1111111111111011
1111111111011011
10110
1110
11
1111111111110111
1111111111110111
1111111111110000
1111111111111011
101111
1111111111110011
10000
1111111111101011
101
1111111111111101
101010
1010101
1111111111100001
101010
1111111111111000
1001
1111111111110010
111110
100110
1111111111100011
1111111111111111
1111111111111001
10100
1111111111100110
10110
1100
11
1111111111010011
110010
110100
10010
10011
1111111111001111
1110
110100
1101
1111111111001101
1111111111100011
1111111111001010
1110
1010001
101100
11100
10100
11000
101
11
1111111111010001
1010
1111111111111010
0
1111111111100010
110
1111111111101000
11110
100
1111111111011111
1111111111100011
110100
1111111111110010
111100
1111111111100001
1111111111111110
100011
1000
100110
10111
1111111111100010
1111111111101100
1111111111100111
11111
1111111111011010
1111111111111111
1100
11001
101111
1111111111111011
1111111111101001
1010
11
