1011
1111111111011011
1001
1111111111100001
10111
1011
10
1111111111110011
110
1111111111000111
110101
1111111111101001
1011
1111111111110111
1111111111101100
1111111111011111
1111111110100111
10011
1100
1111111111010101
100000
1111111111010100
1111111111111011
100010
1111111111110010
10001
11000
1111111111000110
1111111111110110
100
1100
1111111111011000
10010
1111111111000010
101111
1111111111111111
101
111010
1111111110111000
1111111111110100
111
1111111111111000
1111111111011100
1111111111010011
1111111111100001
1111111111111111
1001
101
1111111111011011
10110
1101
1111111111011010
1000100
1111
1111111111011100
1111111111101000
1111111111101100
1001
1111111111111000
1011000
10
1111111111110101
110111
1111111111010001
10111
1111111111110110
100011
1111111111010110
1111111111100110
1111111111111110
101101
110011
1111111111001101
1111111110110100
1111111111111011
10
101
1000100
1111111111111001
1111111111010110
10
1111111111011101
110110
1111111111111010
1111111111011001
10
1111111111101011
111
1111111111111010
110001
1111
1111111110110100
1111111111101000
110111
10011
1100
1111111111011000
1111111111111111
1
110001
11011
100011
1111111111111010
1111111111111011
101111
1111111111110110
100110
1111111111010111
110101
100001
1111111111101011
0
100
1110
1111111111111010
1111111111001011
1111111111011111
101111
100111
1111111111000010
101101
100001
111
1
101010
1111111111111000
1011
110100
1111111111111111
1111111111111000
1111111111110010
1111111111010010
1111
1011
100
1111111111010110
1111111111100110
1111111111101100
1111111111111000
1001
10010
1111111111011000
11101
1111111111110000
1111111111101100
10
1111111111111010
1111111111100010
1111111111111111
1111111111001011
1111111111110110
10
1111111111001101
110
1111111111111100
1111111111110000
111
1111111111011100
1111111111111111
1111111111100111
1111111111011110
1111111111100101
1111111111110000
1111111111100001
11110
1
11001
1111111111001101
1101
1111111111010110
110011
101111
1111111111000111
10011
1111111111110001
1000
1111111111100000
1111111111011110
1111111111011111
0
1111111111010010
1111111111011001
1111111111100001
1010
11110
1111111111011101
1111111111110110
10001
100
1111111111101111
10001
1100
1111111111100100
1111111111101010
11001
1111111111001011
1111111111011101
1111111111110011
1111111111100010
101101
1001011
101011
100000
0
1111111111011000
10100
1111111111001001
1111111111110101
1111111111100011
1111111111100100
11010
1111111111110100
11010
1111111111101000
1111111111010111
10111
1111111111110110
1000
101101
1111111111111110
11111
1100
1111111111001010
10001
111
1111111111110100
1111111111010110
1001
1111111111111111
1100
101111
101
1111111111011000
1111111111001110
1111111110011010
1111111111100000
1000
1111111111010000
10111
1001111
10010
10010
1111111111101110
1010
1111111110111100
1010
1111111111000111
1111111111111101
1111111111111011
1111111111101111
10000
0
1111111111110110
1111111111000000
1111111111100110
1111111111110011
11110
1
1110
1111111110111011
10100
1111111111100101
1111111111110000
11011
100101
1111111111100100
10111
1111111111111111
1111111111100110
1111111111110111
11010
101110
1111111111101101
1111111111100100
111
101111
10011
1111111111000100
110
10101
1111111111000101
1111111111011000
1111111111011011
1111111111100010
1111111111111100
100001
1111111110100010
1111111111111111
1010
10001
1111111111001010
1111111111110000
1111111111000001
11001
1111111111111101
1111111111100000
101100
1100
11001
1111111111111100
1111111111110011
1111
1111111111011110
100111
11100
110000
0
101100
1111111111101101
110101
11011
1111111111010110
110
1111111111110000
110111
1111111111111111
1111111111100011
1000011
1111111111101011
1111111111101010
1110
11111
11110
111
1111111111111011
1111111111010110
10111
1111111111110111
11
1
110101
1111111110101101
100000
1111111111101000
1111111111111010
100101
1111111111100001
100111
1111111111111010
100100
1010
1111111111111100
101011
0
1000100
11001
1111111111100111
1111111111111010
1111
11100
1111111111111010
1111111111100101
1111111111011110
10
1111111111100100
1111111111010010
1111111111110011
1111111111100011
101000
1111111111011011
100011
1111111111101111
1010000
1111
0
10101
1111111111111111
1111111111101111
1111111111100001
1111111111111000
1
10010
11001
1111111111111100
1111111111101111
1
110100
1000
100000
1111111111111111
1111111111110101
11
10001
1111111111101010
1111111110111010
110101
1111111111110100
1111111111101100
1111111111110011
1111
1111111111001111
1010101
10100
1111111111010011
1111111111110000
0
1111111111000101
0
1111111111100111
1111111111110011
1111111111011000
1111111111100101
11100
111110
1111111111110011
100010
1111111111101111
101111
1111111111100011
1111111111110110
1111
101
101100
1111111111101011
11
0
1100
1111111111101011
111011
10101
10110
1111111111101010
1111111111010111
1101
100
1111111111111100
1111111111111001
1111111111111011
1111111111111101
10010
0
1111111111110110
1010111
1
1111111111110100
1111111110110110
1010010
10011
1111111111110100
111
101
1111111111011001
1111111111111001
1
1111111111101010
1111111111011100
10100
110110
1111111111011111
10
1111111111011100
100011
10
110111
1111111111111011
1111111111100100
1001001
10100
1001
1111111111011011
10
1110
110110
1111111111111111
100001
1111111111111100
1111111111111111
1000001
1111111111100100
101001
1111111111100110
111110
110001
10100
1011
11
11110
110101
10111
1111111111001100
1111111111100101
10110
1111111111000111
1111111111011110
1111111111111111
1111111111010100
1000
101011
1111111111100100
1001
1111111111010001
100010
1111111111110110
1111111111101000
1111111111100111
11101
1111111111100010
110110
1111111110111010
1111111111101100
100010
11101
1111111111011000
1111111111111011
1111111111100111
1100
1001
101
1111111111101101
10011
1111111111111000
1111111110110110
1111111111100110
1111111111011111
1111111111101101
1111111111101010
1111111110111001
1111111111010001
1111111111010110
11010
100110
110000
1111111111101100
1111111111011100
1111111111101001
1111111111110010
111111
1111111111010000
110110
1111111111110000
1111
1111111111110001
1111111111100001
1111111111100000
1
1001
1111111111011001
1111111111111100
100000
1111111111101010
1111111111001010
1111111111100101
11001
11000
1111111111110001
1101
100000
1111111111111101
1111111111100100
101001
1011
1111111111111110
100110
1111111110111111
1111111111011010
110010
1010
10110
1111111111111111
1000
10
11
1111111111010000
0
100
1111111111011110
1111111111000100
111000
1111111111001110
10001
1111111111011111
1111111111110000
101000
1111111110111101
1111111111010101
1011
1111111111010001
1111111111001111
10111
1111111111101010
101010
1111111111011111
101001
1100110
1111111111101100
100100
100101
110111
1111111111100001
110
100000
101101
1111111111111111
101101
11010
1
101110
1101
1111111110110010
1111111111101000
1111111111100111
1111111111100001
10111
1111111111010010
100011
11011
1111
1111111111110110
110
110
1111111111100111
1111111111111100
1111111111010101
1010
1110
10
1111111111011010
100010
1111111111101010
1111111111101111
10000
0
0
1111111111100000
10000
1111111111110001
1111111111110011
1111111111010001
101
1111111111001001
1111111111101101
1111111110111010
1111111111010010
111010
111001
1101
1111111111101100
1111111110110110
1111111111000100
1111111111111100
1111111111011110
1111111111111011
1111111111011010
100110
11
1010
11010
1111111111110101
1010
10001
1111111111111101
1111111111111100
11001
1111111111101011
100110
1111111111101010
10111
100011
1111111111011000
1111111111110101
0
10111
111000
1111111111011001
1111111111111000
1001
10010
11110
1111111111010011
1010
11011
10010
10111
1111111111010010
1111111111001111
1111111111101010
11
1111111111111001
11010
1111111111101101
100010
10111
100001
11100
1111111111110011
1111111111111101
1111111111100011
10000
10111
1111111110010111
110
1111111111011001
1111111111111000
1111111111100101
10100
0
100000
1111111111101111
11011
111110
1111111111010101
1000101
1111111111100010
101011
11101
10
100010
1111111110110010
1111111110111110
1111
1111111111011011
1111111111011100
101100
1111111110111101
1111111111010000
0
1111111111111111
1111111111110100
1111111111101110
101
101
10000
1111111111111001
1111
10000
11110
11101
10
1111111111111100
1111111111100001
11010
1111111111111000
1111111111100001
101
1010001
10010
10111
110010
1111111111100101
100000
1111111111111111
100000
1111111111111010
10100
110
1111111111000110
111
100100
10111
1111111111110100
1111111111110011
101
1111111111011001
11110
101110
11100
1111111111100001
1111111111100101
0
1111111111011100
1111111111001000
100011
1111111111010001
10000
1001
1111111111101100
1111111111011010
1111111111111011
111
1111111111111001
10110
101010
1111111111101100
1111111111110010
1111111111011110
1111111111101111
1111111111001111
110010
0
1111111111110011
1011
11010
100000
1111111111010101
