1111111111101111
1111111111001111
1111111111110010
1111111110110011
1
1111111111111110
1111111111000000
11000
1111111111111110
1110
11100
1000
1111111111011110
1000
1110
11011
1111111111011010
1111111111101101
1111111111110001
1111111111110010
110101
1111111111100110
1111111111001101
110
1111111111111001
1111111111110101
11100
1111111111100001
0
1111111111100101
100100
1111111111110000
1111111111110100
1111111111010001
1111111111111010
11110
1111111111011101
10111
1111111111110110
1111111111000101
1111111110100100
100101
11101
10101
1111111111010000
10010
1111111111100001
1111111111111111
11100
101
1111111111111111
1111111111101100
1111111110111001
1001010
1111111111110101
1111111111100000
110
1111111111010100
100001
0
10000
1111111111001111
11001
111
1111111111101001
1001010
1111111111010110
1111111110111110
1111111101011010
1111111100001101
1111111110111001
1111111111101011
10110
1111111111111111
1101101
10111101
111111
1110
111110
1100
11110
1111111111100001
100010
10011
110
10001
1111111111111001
1111111111000000
1000
1010
1010
11
1111111111011000
1111111101111111
1111111110100000
1111111111101001
1110000
1111111101001000
1111111101110010
1111111111101011
10111011
1010000
1100100
1110100
1101000
1100100
1111111111101000
1111111110101111
11101
1000011
1111
1100
10010
0
1111111111101010
110010
1001011
1111110
11100
1111111111101100
1111111100111000
1111111010110011
11001001
1000001001
1111111011111100
1111111011001111
1011000
111010100
10101000
1111111110100110
111011101
1111111111101111
1111111100011110
100010000
10111011
110000111
101101001
100100100
10010
1001100
1111111111010011
11
1111111111110000
1011
111001
100111100
100011011
1110101
100111111
1110100
101100111
1111111110110111
1111111111101111
100100110
1111111101010101
1111110011100111
1111111110000110
1111111101110011
10
1111111001000111
1111111111000000
1111111100000101
1111111110101111
1000000100
1010010010
1001111100
11101
101001
1110
1111111111010100
1000000
10001010
11011011
101101110
1001100
10111100
1111111110001101
101011011
1000101110
1010000000
10110111
100110110
100010011
111000
10100111
1100111010
110101100
100011000
111101011
101001001
1111111100111101
1111111111110001
1011000110
1010111111
11001101
100100
1111111111111101
1111111111000011
1111111111001111
1111111110111011
101011
11000
10101011
1111111111100111
110010110
1111111100110001
1000100011
100000011
101011100
1110101
1000101101
111110001
100111100
111010110
111100101
100001010
1100101100
10111111
111100
10100100
1010100100
101110001
1001110
1111111111100110
0
100
111001
10010000
11100001
101000100
1111111100010111
10000
100001
1010101
11010101
101001000
1001001111
110001100
100101100
10110110
1010110111
110010000
1011111100
110100110
1111111110100100
100000100
1110001
1110110
111011001
110010101
111001
1111111111111111
101
1111111111110011
1111111111100110
11111100
1001101111
1001100
10111001
100101101
1111100
1001000101
110010110
1111111111010100
1111111110010001
11001100
111110001
111101000
1101101
10101
10101110
1111110111110010
1111111100101000
1111110100111011
10010111
1111111100101110
11011
1100111
1111111110111110
11011
0
1000
111110
1001001100
11010111
1111111011100100
110110000
1110111
11101001
1111111111010111
11101011
111111010
101000000
1111111000110110
1111111000001001
1111111000101011
1111111100101110
1111110001110110
1111110110010001
1111110100110001
1111111010010110
1111111011010100
1111110111010000
1111110100101101
1111111101010010
1111111111001011
1111111111111011
11010
1111111111110011
1101
1111111111111110
11110011
100110
1111111001110110
1111111110110010
1111111111011101
1111111001000001
1111111001101010
1111110110011111
1111111101111100
1111111111010101
1111111010010100
1111110110000101
1111110110100000
1111111000010000
1111110101010000
1111110110011111
1111111000011001
1111111100101110
1111111101100010
1111111011100000
1111111000111001
1111111011100001
1111111111010010
1111
1111111111111010
1111111111101010
1111111111111100
111
1111111011110011
100011010
1111111011111101
1111111011001010
1111111101011000
1111111101011100
100101
10101100
1111111100001101
100100111
1111111110100111
100000001
1111111111111111
1111111110100100
1010110
11011110
1111101100101011
1111111000110101
1111110111010000
1111110101010101
1111110110100001
1111111010110011
1111111110001110
11000
0
1111111111101000
10110
1111111111101111
1111111100110111
10011111
111001111
1111111011111110
10000111
1111111110010100
111101
1000000101
1101000001
10010001
1001010101
110011011
1111111110110101
1111111110011111
10111100
1111111100011111
1111101101010001
1111111101000000
1111110101111111
1111110110000001
1111111011010101
1111111100101100
1111111111111110
1111111111100001
1111111111011011
1111111111110101
1111111111101011
10110
1111111111000001
10010100
10000111
1111111111111100
10101001
1111111110100101
101110000
1011111
100100100
111011111
100
100011001
100000111
1111111110110001
1111111010110001
1111111110100110
1111111011001010
1111111110100001
1111110111110101
1111110111100100
1111111101101111
1111111110100101
1111111110100101
1111111100110110
1111111111100100
1111111111110000
1000101
11
1111111110111111
1111111110100101
1111111110010100
1111111110001110
111111
11010111
1000000000
1010011100
1000111000
1000010101
1111111001100010
1111111010100111
10110111
1111111101101010
1111111111101111
1111111101110000
11110011
111011100
1111111111011010
1111111101011000
1111111110001110
1111111111011000
1111111011110100
1111111110111111
1111111111011100
1111111111011010
101110
11101
1111111111011100
1111111000001101
1111110001011101
1111101110100110
1111110110100111
1111111110101000
11110001
1010001110
1000110100
1100010000
110010000
1111111100001011
1100010
111100
1111111011101011
1111110111100011
1111110111101100
1111110101110000
100011000
11011001
111111
1111111100110110
1111111011101111
1111111110001000
1111111111101010
1011
100010
1011011
10111101
1111110110000011
1111100110100001
1111011111000100
1111100100011001
1111011011101001
1111100101001011
1111111000010010
1111111010010000
1111111110110001
1111110010100100
1111110111111110
101110000
1111111010010000
1111111110100010
1010110
1111111111101001
1111111111011011
111
1111111001011100
1111111100010111
1111110011111010
1111111101110100
1111111111011100
100011
11
100011
11111
10111111
1111111011000101
1111101001101101
1111100100000001
1111011111110111
1111010010111101
1111001100111101
1111001000001001
1111011101110000
1111100010100111
1111101100101101
1111110000101011
1111110111110101
1111
1111111000100110
1111111011000110
11010011
1001011101
1111111110110101
1111111001001101
1111110101110110
1111110110001001
1111111111010111
1111111111100101
100011
111110
1111111111100011
1110010
101000011
10111100
1111111000010010
1111110011001101
1111101001000011
1111100110001101
1111011110000111
1111011101101110
1111011001100010
1111100101001011
1111110101101111
1111111101111101
1111110110111011
110100
110100
1111111011100110
1111111110000100
100010111
1111111000100101
1111111111100011
1111111010101011
1111111111101111
1
1001
1111111110110011
1111111111101001
100101
10001
100011010
100010001
11001010
1111111110001000
1111111110100101
1111111111000011
1011101
10010111
110100011
101011
1111111010111101
1111111111011000
1101011
1111111010000110
10001010
11100010
100111111
110011110
1111111110101110
110111001
1111111111011101
1100110
1111111111111001
1100
1111111111101100
1111111111100000
10010
1111111111001110
10010010
1011110010
1011000101
1000111100
10011011001
110001110
11110100
1111110001
111000111
111001001
101011010
1111111110011010
1111111111000100
1001010
1111111001111110
1111111100011011
1111111111110111
100011111
110001
1111111011110110
1111111110010111
1111111110011010
1111111110110011
1111111111110110
1001
1111111111100111
1111111111111101
1111111111000000
11001110
111110110
111101101
1000011001
1101110010
10011011000
110010110
1001101101
111111110
111000100
1111111111001100
1111111101011111
1111111011110110
1111111011010101
1111110111010101
1111110110100110
1111110101111001
1111111110000010
1111111011110001
1111111111011011
1111101
1111111101001111
1111111101110010
1111111111001111
1111111111011111
1111111111101010
1111111111100000
10001
11101010
1010011101
1110100101
1001101000
1011110000
1000110010
10110111
1001011100
111110101
10111011
1000010111
111011
100100011
1111111110001100
1111111101000110
1111110110000010
1111111000100101
10111010
1111111001010001
1111111110100111
111110
101000
1111111110110100
1111111111110000
10000
1111111111010100
1111111111111110
1111111111011111
10101010
101110000
1100000111
1100100111
10001000110
1000011111
1010011101
1100001110
11001111
101010000
0
1111111110110011
1111111110110000
1111111001000000
10110010
1111111001110000
1111110100011010
100000
1111111110000010
10111010
11000000
110000
1111111111110010
11000
10110
1111111111011101
1111111111111001
10111
101011
1110001
1011000
10000110
1000101010
1010011111
1101011000
10000
1111111111111110
10001000
11100101
1111111011100101
10000100
11001000
101001100
110001010
1000011001
1000000
11000010
101100010
11111011
1110000
101110
1111111111011000
0
101111
10000
101111
1100000
1111111111111101
1111111111101001
10010
11110
1111111110010110
1111111111111000
10111101
1111111111001111
100011110
110001110
10100010
11110010
100011110
1111111111000101
101010111
1001000001
111010001
101100110
11100110
1001001
1111111111101100
1111111111011101
0
1010101
11100
1111111111111001
1111111110101110
11
100110
100
1111111111110010
1111111111100110
1111111111111101
1111111111111001
1111111111110111
1111111111100101
1011000
11101
1011100
100000
1111111111010110
1111
1111111111010001
1111111111010101
10101
1111111111110111
1111111111110011
100010
1111111111011111
1111111111110100
1111111111111101
1111111111010111
