1111111111111111
110100
1
11011
1010
1111111111100101
1111111111100101
1111111111000000
1111111111100011
1111111110111110
1111111111101010
1001
1111111111101110
1111111111100001
1111111111111011
10111
1111111111001011
1111111111110011
1100
1011
111100
1011
110100
1010
1111111111110110
1011110
1111111111101001
10100
1111111111111111
1000
101110
110
1111111111101100
1111111111111101
1111111111111101
10011
100001
1001
1100
1111111111100010
1111111111111100
1111111111001001
1111111111110100
1111111111111101
1110
1111111111110010
1111111111111001
10100
1111111111100001
1111111111100001
1111111111110111
1111111111011101
1111111111110101
101010
1
1000
1111111111010100
1111111111101011
1110
101111
1100
1001110
1111111111111000
1111111111110101
1111111111001011
1111111111111011
11000
1001000
1000
1111111111110100
1111111111110001
1111111111100100
1111111111110011
11100
1111111111001111
1111111111100001
1111111111100100
1111111111111000
101001
1111111111110010
1111111111111100
1111111110100101
1111111111111110
1111111111001110
101000
1111111111100001
1111111111100000
1111111111101110
1111111111101110
1111111111110100
1111111111101101
1111111111011001
1111111111001110
1111111111101100
1000
10111
11
100
1000101
1111111111110001
10001
10001
1111111111101100
1111111111101101
1111111111111011
1111111111100010
10111
1111111111011010
101100
1111111111101010
1111111111110010
0
100
1111111111101000
10010
10010
1111111111011110
1111111111000101
111100
1111111111001001
1111111111111010
1111111111110010
1111111111111110
10
1101
1111111111111010
1111111110110000
1111111111010000
1111111111101100
1111111111101100
1111111111010011
1111111111011010
1111111111101010
10000
1111111111110010
1111111111111110
1111111111010001
11101
1111111111101111
101100
101100
110001
100000
1111111111011111
1111111111100100
111
100111
1111111111110110
100011
1111111111111100
1111111111110111
1111111111111010
101000
1111111110111100
1111111111110110
1111111111011011
1111111111010111
1000
1111111111100111
1111111111111101
1100
100110
1111111111101001
1101
1111111111111000
1111111111101011
11011
11000
1111111111101100
110110
1111111111110111
10110
1111111111000101
1111111111010000
1111111111111110
1111111111110001
1111111111110100
0
1100
100000
1011
1111111111010010
0
10000
1111111111111111
1111111111011100
10110
11
1
1111
101110
10
1111111111010000
1111111111011101
1010001
110001
1111111111110100
11001
1111111111110101
1000101
1111111111000100
1000101
1111111111010010
10001
1111111111110111
100
1111111111110001
1111111110110111
1100
10010
10001
1100
110
1111111111111011
1111111111101110
1001100
1111111111100010
1111111111010011
100110
1111111111001101
11010
10110
111101
1111111111111001
100
1000110
1010
1100
10110
10011
1111111111101111
1111111111011010
1111111111010111
1111
1111111111110010
10000
1111111111111011
100100
1111111111011000
1111
1100
1010101
101010
1111111111100001
11000
101111
110011
1011011
10010
1111111111110000
1111111111101000
10111
1111111111010011
1111111111010111
1000000
1
1100
1111111111100000
1
1111111111001101
100110
1111111111010111
11000
100111
1101
1111111111011101
1111111111100001
10
1111111111100010
100110
1111111111001100
1111111111110010
111
1111111111110001
1111111111001101
111000
100
1111111111100001
111100
101101
1111111111111000
11110
1111111111010101
1001
0
1111111111110011
1001010
10
10101
10001
10
1111111111011011
1111111111001101
111001
1110
1111111111111101
1010
1111
101100
0
1111111111001101
1111111111111101
1100
1111111111100111
1111111111110000
1111111111100010
1111111111111101
1111111111100000
0
10110
1111111111101100
101011
1111111111101011
1111111111011101
11110
1111111111110010
1111111111100101
1111111111010010
1011
1111111111110001
1111111111100101
101110
11010
1111111111110011
1111111111110110
1111111111000010
1001
1111111111100100
11
11011
1111111111101110
10
10
100111
1011
10
1111
100010
1111111111101000
1111111111101110
1111111111010001
101101
1111
1111111111111001
1111111111111010
1111111111101011
1111111111010001
11
100101
1111111111101110
1010001
111
100
1111111111100010
1111111111001000
110
1111111111101111
110010
1111111111100011
1111111111111010
1111111111111010
1111111111110001
10101
1111111111100011
1111111111111010
1111111111101011
1111111111111101
1111111111001111
1111111111100111
1111111111011101
1111111111011100
110010
1111111110111011
1111
1111111111111011
111
1111111111100100
1111111111000011
1111111111001100
1111111111010110
1111111111100110
1111111111111111
10000
1111111111010000
10110
1111111111110110
10000
1001
1111111111100010
1010
1111111111100011
100111
1111111111100010
1111111111001001
1111111111100011
1111111111111000
1111111111101011
1111111111111111
1111111111001110
1111111111110110
1111111111100011
1111111111101111
11110
10110
1111111111101110
101011
1111111111000010
1111111111101110
1111111111100101
1111111111110111
1000001
1111111111011100
1001010
1111111110110111
0
100101
10010
11011
1111111111101111
1111111111111011
1111111111010101
1111111111110110
100
1111111111000101
1111111111100101
1111111111010111
10111
1111111111101010
1111111111110001
1111111111010000
10000
1111111111101010
1111111111110110
1001
1110
1111111111111010
1111111110111000
1001
11
1111111111111111
10110
1011
1111111111110111
1111111111101110
1111111111110100
1111111111100001
1111111111111100
1111111111010000
10010
1111111111110111
100101
1111111111111111
1111111111101001
101011
10001
111
1101
10
0
1111111111001000
1011
100110
1111111111100011
1111111111110101
10111
1010
1111111110111010
1001
1111111111011100
1111111111111101
1101
11010
10
101010
1111111111111001
110
1
1111111111100000
1111111111100101
111
1111111111100100
1111111111110100
11011
110111
1100
1001
1111111111101000
1111111111101010
1011110
10101
11
1111111111010010
101001
11000
1111111111011000
1111111111111100
1000
11110
101000
1111111111110001
100
1111111111101010
11101
1111111111010001
1111111111100101
110000
1111111111111101
1111111111101100
1111111111100100
11111
100101
101
1111111111100100
110110
1111111111101111
1111111110011110
110100
1111111111100010
1111111111101100
101
1111111111111101
1111111111101011
1111111111100010
101000
110011
101101
1000
100
1111111111011110
101000
100010
11000
11100
1111111111011001
0
101001
1111111111100110
1111111111100001
11011
0
1011
100001
1111111111101001
101111
1111111111001101
1001
11000
11110
100011
101100
10000
1111111111111001
100
101
1111111111001010
1111111111100100
10110
1111111111010100
10000
1111111111011100
1111111111011110
11
1110
1100
10101
100000
100011
110011
100
11101
1001001
0
1
11100
101011
11111
10110
1111111111101011
1111111111101010
100011
1111111111011001
100110
10001
11101
1111111111010101
10100
100011
1111111111100101
11
100010
100010
1111111111101110
101100
10100
110100
1111111111000000
111100
1111111111110001
1010001
1111111111011100
1111111111110100
1111111111101110
1111111111101000
1010
1010
1111111111110011
1111111111111101
1111111111111000
111
1111111111110011
100010
1111111111011101
1111111111111001
11100
1111111111011100
1111111111111100
1111111111100010
1010
1001010
1111111111111101
1111111111000100
10010
1111111111111111
0
1111111111101101
1111111111011100
101
1111111111011010
110111
100011
1111111111011101
1111111111101100
1111111111011000
100
10010
100101
11001
1111111111100001
1111111111111010
1011
1001011
110010
100001
111111
1111111111100101
11001
1001
111
111000
1000
101
1111111111111111
1001
1111111111011111
1011
1111111111110111
1111111111111001
1111111111111100
1111111111011111
111101
1111111111000110
1111111111110111
1111111111010110
1111111111001100
1111111111110110
1111111111111001
1001
1111111111010011
1111
1001
1000101
11101
1111111111111000
1111111111111001
111
10110
0
1111111111110110
111
1111111111101100
1111111111111010
1111111111110000
1111111111110001
1111111111111000
1110
11011
1010111
1111111111100111
1111111111100010
11010
1011000
1111111111101100
1111111111011011
10101
1111111111111001
11010
11010
1111111111100000
1111111111111111
1001
110011
0
100110
1111111111110001
101001
10101
11000
1111111111010000
0
1111111111110111
100101
10110
1111111111011101
1001
1111111111001010
1111111111100111
11111
1111111111011010
10101
101101
110100
1111
1111111111111000
100101
1111111111110111
1111111111001010
1111111111100110
1111111111011010
1000100
0
1111111111100110
1111111111011011
1111111111000010
1111111111110000
1111111111110100
1010
1000011
1000011
101111
1111111111111001
101000
1111111111110100
100001
1111111111011011
1111111111100101
1111111111101100
1111111111111001
1111111111111101
101011
1111111111110101
111001
11100
1000111
1111111111110001
1111111111100101
10001
1111111111110010
1111111111111010
1111111111110110
1111111111111000
1111111111101110
0
1111111111111100
111
110111
1111111111111010
1111111111101010
1111111111100010
1111111111001111
1111111111111000
1111111111110010
1111111111110011
1111111111011100
1111111111110111
1111111111111011
1111111111110001
1111111111011100
101010
1101
110000
110011
1100
100011
1111111111101100
