1111111111100001
1010010
10110
1111111111100100
1111111111111110
1111111111001101
1111111111110110
1001110
1111111111010100
11100
1111111111110000
1111111111001101
1111111111000100
100101
1111111111001100
1111111111100100
110
1000
101101
1111111111000001
1111
1111111111001110
1111111111011010
1111111111100110
1010010
1111111111000101
1111111111110010
1111111111111010
1111111111010111
1111111111100001
1000100
1111111111011011
1111111111111011
1111111111101001
100100
1011
11100
1111111111100001
1111111110110001
1000100
11001110
1100010
10100
100001
100111
100110
1111111111110101
1
1111111111001110
111110
1111111111110100
1111111111110101
110100
1
1
1111111111111111
1111111111101111
1111111111011001
1111111111010001
11100
1111111111100101
1111111111011110
1111111111001100
1100
1111111110100110
1111111110010100
1111111111001111
1111111111001010
1111111101111111
1111111011100101
1111111101101011
1111111100010110
1111111011100001
1111111011101000
1111111100110011
1111111110000000
1111111110101001
1111111111100010
1111111110011110
1111111111100110
1111111111100010
1010100
1111111111001111
11001
1001000
110000
11101
10001
0
1111111111001000
1111111101100110
1111111101000011
1111111111000101
1111111001010010
1111111011010000
1111111101100100
1111111011101011
1111111110000100
1100111
1111111101110101
1111111011010101
1110010
1111111100011101
1111111101110101
1111111111010011
1111111011100011
1111111110111101
10010111
11100000
10100001
1010001
1110
1111111111110111
101
100001
111010
1111111111010110
1111111100110000
1111111101111010
110
1000
1111111110111101
1111111011010000
100000101
1111111110110001
110110011
1111111101001100
111101111
1111111011110001
10110011
1111111011011110
1111110101110000
1111110111101101
1111111001001100
1111111110010011
1111111100010000
1111111111010110
1111111111111100
110110
1010
100011
10101
100011
1111111111111100
1111111111100110
1111111110001011
1101101
1011101
11001001
1111111110000111
101111
11111000
1000111
1010000010
11101
10011110
1010010
110011000
11001010
110010011
1111111010101100
1111111000000011
1111111101011111
1111111010101010
1111111101011001
1111111110111101
110
1111111111110101
1111111111101000
1100
1111111111110010
1111111111101100
1111111111010000
101
1111111110011100
1111111100100001
1111111101100101
1111110110111100
1111111100101010
1111111111011111
1111111010010000
100101111
101110
10010100
1011110110
101101001
110100010
1010000011
10010010
111110011
1010000111
1111111110101110
1111111101011011
1111111000010101
1111111100101000
1111111111000100
1111111111110110
1111111111111000
1111111111110100
1111000
1111111111000001
1111111101010011
1111111111011011
11001111
1111111101011001
1111111111011010
1111111111001100
1111111010111110
101100
101110
110111010
1001010110
10011100
10011010
1001000010
101011010
1111111011111001
100101011
1111111100010100
10011011
110010
1111111010111001
1111111011010111
100111
101
1111111111110000
1111111111101110
1111111111101101
1111111101010000
1111111010010001
1111111110011110
10011101
11111
1111111110101011
1001110
1111111001110010
111001001
1111111100000100
10100100
1011010001
11010110111
1100011110
1000101010
1111111100000110
11001100
10011000
1111111001100101
1111111101011000
1111111111010010
1111111001100000
1111111011111001
1111111111010001
1111111111100001
1111111111001111
1111111111000001
111111
1111111110111101
1011111
1000001101
110000000
1111111101001000
1000111110
1011000001
1111111101100000
1111111101101111
1000001011
1111111100010110
100010111
1101110100
111000001
1101000101
1000000110
111011011
1111111111100100
1111111110011110
10111101
11101101
1111111100111110
1111111100011010
101001
1111111111110000
1111111111000111
1011100
10010000
1111111111101101
1010110
101111010
110100
1111111100101010
11100110
1111111001111011
101101111
1111111111100100
1111111111001101
101110010
11101111
1011100001
1001010000
100110111
111011111
1111111111011011
111001111
100011010
1010000000
11110101
1111111111111010
1111111111101001
1111111111101110
110000
100010
1110110
1000100
1111111110100110
1111111101000100
110101000
10
1111111011100010
1111111000101011
1111110111001100
1111111111001000
1111111011001011
1111111111000111
10010010
111000100
101001100
1010101100
101110011
1000010011
111011000
10001010000
1010101001
111011010
10011
1111111100000010
1111111111000101
1111111111010110
1111111111100000
101111
1100010
1111111110101101
101
1111111110010010
11011010
1111111100001010
1111110111000011
1111111111000011
10101100
101111010
1101011101
100110111
101101101
101111
1111111000111000
100100010
1010101001
101101011
11110100
100000011
1001011010
1000101110
1010100
1111111110011001
1111111111000001
101011
11110
1111111111011011
110110
1111111110100001
100001100
1111111111100110
1111111101100110
110000001
1111111101110011
1111111111110101
101000111
11000
101001011
1111111000011110
1111101100011101
1111110010010001
1111110100111001
1111111000111010
1000111011
1111111111010100
1111111010001011
1111111100011000
111101
100010010
10101000
100000
1111111110110111
1111111111111000
10100
10
10111
101001
10100100
100111011
11110000
1011010000
110000000
100000010
10111100
101111011
111001010
1111111011011101
1111101011101001
1111110100101111
1111110001100010
1100111
110101001
1000010
111000111
111011110
1000100
111010100
100011000
1111101
1111111111111111
10010
1000
100001
1111111111001110
1111111100110011
111011010
1101101100
1111111101010110
1110001101
101001001
0
1000001000
1101010
1111111110010100
1111101000101001
1111101110110011
1111110001111111
1111110000111001
101101
1100000011
11110100
100100001
101000110
10110001
110111101
1001010011
1111111111100011
101101
100101
1111111111111100
1111111111100011
110111
1111111101100111
1001001000
1011110010
10110
1111111011010011
1111111111100001
1111111110110100
10000100
1111111101000010
1111110011010011
1111100100010010
1111110011000000
1111101110011001
1111110010001011
1111111110100110
1111111101011110
1111111110100000
111110110
1111111100111101
1111111111000000
1111111111010101
1111111100101111
1111111001011110
1111111101001101
1111111111110111
1111111111110010
1011
1111111111111000
1111111011001101
100101011
110010110
1111000
1111111111001000
1111111100001000
101
10111100
1111111001011001
1111110001101111
1111110000001011
1111110110000010
1111111010111001
1111111111010010
101110000
1111111101010000
101000100
1111111110001110
1111111101000101
1111111110010010
1111111101001000
1111111101111010
1111111011101011
1111111110010100
110001
1001010
1111111111110110
1010
1111110111110100
1111111110101111
110000
101111000
1111111101001001
101001100
111001010
110011
1111110101100010
1111100111010110
1111110001011001
1111110101110100
1000001
11001
100010100
111010011
1111110100010001
1111111001111100
1111111101101010
100011000
1111111111110101
1111111011111011
1111111100100010
1111111110100110
1111111111110011
110000
111000
101100
1111111010011010
1111111110100000
111100
10010001
1111111010111110
111010101
1111111001101011
1011010100
1111111100100101
10011101
1011001
11010000
1111110101001000
1111110011101011
100101001
1111111100010111
1111111000010110
101011
1111111111011011
101100000
1111111011110010
1111111011100101
1111111100101001
1111111111011110
1111111111100100
101000
10100
1111111111101101
1111111110111110
10101000
100111000
10101
1111111100111111
11100111
1111111011010011
101111101
100110000
10000010
101100110
1111111000001001
1111111001111110
1111110100100011
101
1111110101110000
1111111011000101
1111111100100011
10100101
1111111011011000
1111111110001110
1111111011101101
1111111110000010
1111111111100111
100100
10
11000
1101101
100111
1111111101110101
1111111110111010
1110110
11010
1111111100100000
1111111111101101
101110100
1000110101
1111111110100100
1111111010110110
1111111010101001
1111111110110111
1111111001100011
1111111000101111
1111110011110010
1111111000110111
1111111001010100
1111110011001011
1111111101001001
1111111111000100
1111111100001111
1111111111000111
1111111110101111
1111111111010010
111001
1111111111111110
110011
10100001
1111111000000010
1111111010010101
11110010
1100100
1111111101101011
11111011
101010010
111011
101010100
10000101
1001000
1111111100001100
101110
1111111111011101
1111111101110100
1111110011000101
1111110001100001
1111110100111111
1000011
101010010
110000
100011
1111111111011011
1111111111110010
110011
111
1111111111001010
110110
1111110111000100
1111111011011101
10010001
100000111
111001111
101011
100111011
1111100
1111111111000100
10011100
1111111111111111
1111111110010010
1111111111001001
100011011
1111111010011100
1111110100111101
1111110001100101
1111111000111100
1111111111110101
11000
11000111
10
1111111110101100
11101
101010
1010
1111111111100001
1111111111101100
1111111101111000
1111111111100010
1111111101110101
1111111111110001
101100
1111111011111100
10110010
1111111100011011
101010011
1100111
1111110110000111
1111110111000111
1111111011010110
1111110101000110
1111111000000100
1111110111000001
1111111011000100
1111111100000000
111
1110000
1111111111011001
1111111111101000
1
1111111111101001
1111111111100010
10100
1111111111000111
1111111111111000
1011
1011011
111011
1111111110000100
1111111100010011
1111111011010101
1111111100000101
10110011
1111111111010000
1111111101001110
1111110111110011
1111110101111000
1111111110000101
1111111100110001
1111111101101110
10111101
1001110
10101
10000000
1111111111111110
11010
110000
101
1111111111110010
101100
111100
11011
0
1100001
1111110
1100010
1011001
10000001
10010
100000
1111111011110111
1100101
100101010
10110111
10111111
1111011
1111111111011010
100000111
100101011
10111011
10000010
10110
10000
101100
10110
1010001
10010
10100
1111111111000000
1111111111010010
1111111111101101
1111111111001110
110
1111111111110111
1100101
1010100
1111111111111111
1000011
1010
0
1111111111110001
1111111111100111
1111111110110110
101
101000
1011011
1111111111111010
100101
101101
1111111111010101
1111111111011011
1111111111101111
1111111111110110
11
1111111111100110
