11001
110010
110100
1111111111101100
1111111111111011
1111111111101010
1111111111101000
10010
1011
1111111111111101
1111111111110100
10
1111111111011011
1111111111110010
11
1001
1010011
110101
1111111111110110
111000
1111111111111011
10
100000
100101
1111111111100110
100001
1111111111011011
11010
11010
1111111111001001
1110
101001
11
100000
1111111111100101
1111111111100000
1111111111010011
1101
0
1111111110100010
1111111110011001
1111111110010001
1111111110000100
1111111101111111
1111111110000001
1111111111100000
1111111111101101
1111111110110001
1111111110110000
1111111111010000
100110
1111111111110011
100000
1111111111001010
1111111111100111
10
1111111111001100
11001
1111111111011001
1111111111100000
1010
10001
100000
1111111110100110
11001
10100
1111111111101011
1111111111000111
1111111011111101
1111111001001001
1111111110010111
1111111101111111
1111111011010101
1111111100000011
1111111101001000
1111111111001010
1111111111100100
1010
1111111111110101
1111111110111101
100
1111111111000111
100
100110
1101
1111111111000001
11011
1110
1001
1101
1111111111000101
1111111111011111
1111111110001011
1111111101110001
1111111101101101
1111111110110101
1111111010101000
1111110011111001
1111111001110100
1111111011110001
1111111001110111
1111111010000001
1111110111001101
1111111101011010
10011001
101111101
111010111
100001100
1100011
110110
1110
1111111111111111
1000
1001
11000
1111111111111110
110101
10110
1111111111001101
1111111011110111
1111111000111010
1111110100111001
1111110010001110
1111110001111010
1111110101001110
1111111101000000
1111111001000001
1111110110011100
1111111000111011
1111111111010100
10010001
1111
1000101001
110010011
1101010001
1010111101
11110010
101110
10011
10101
111001
1010000
10100
111000
11010
1111111111000000
1111111101001000
1111111010111110
1111111100111001
1111111100111110
1111111101010011
1111110111011100
11000000
1111111111000100
1111111000110000
100110000
1111111010100001
1111111000111011
1111111001111000
1111110110101010
1000110
1111111100101010
11001000
1000110110
101011011
1100010
1111111111101110
1111111111010111
1111111111101110
110011
1111111111101000
100100
1111111110000010
1111111110111010
1111111101101000
1111111100010000
1111111110110101
1111111011110111
1111111000111111
1111110111111101
1111111110001111
10000111
101011101
1111111101000000
1111111100000000
1111110110001100
1111111000011111
1111110110111011
1111111101101110
1111110110001110
10011101
11110100
1011101
1111111111010000
1111111111100011
1111111111110011
1111111111111011
1111111111010011
1111111111011101
1101000
1010100
10001
101100
10111000
1111110101110101
1111111100100010
1111110101111010
1111110110110100
1111111101101111
110110100
1000110
1111111111011000
1111111001000111
10011011
10101000
11010111
11000010
1111111001100011
1111111111011000
10010111
100001101
1010001
1111111101011001
1100
1111111111110110
1111111111100111
1000110
11000
11111001
101000000
1100110
1111111111011001
111001101
11010100
1111111110110111
1111111110111010
1111110101111111
1111111011100011
10110001
101101101
1111110111101001
1111111100001000
10111110
1111110111001100
100111000
1111111111000001
1111111101101011
1111111110010111
11100101
1111111111010000
1111111101111001
1111111110111101
10010
1111111111111111
100011
11100001
10010111
100100111
1111111110011111
1111110111011000
10100011
1101110
1010000
1111111111111000
100000111
1111111111101101
11000101
100011101
100111111
110010
1111111111000001
1111111111010000
1111111110010101
1111111100101001
1111111001001100
1111111001111010
1111111001011100
1111110111100011
1111111110100001
110100
1111111111100011
11010
1111111111100011
11001011
1111111111011101
101
1111111111101010
1010011
10110111
101000101
100101011
1111111111001000
1100010011
1111111010100101
1111111010111001
110100001
1111111101100100
10110010
1111111101101101
10011100
1111111101001111
101000
1111111101001000
1111110011111001
1111110111001011
1111111110111011
1111111100101100
1111
101
110100
110110
10111110
1111111011001110
1111111001001000
11100
1111001
1111111101110101
10001011
110001110
100100010
1010101101
1111110101011101
1111110100010010
11101111
1111111111100010
1100110110
1111111100111111
10011110
10110100
1111111101100100
1111110100101010
1111110011111001
1111110011111101
1111111100011110
1111111100001100
1111111111110111
1011
100100
10000010
100000111
1111111110010101
1111110111000010
1100
111101
1101111111
1111111101001100
111100000
1001010111
1111011010
1111111111111101
1111110100000111
10101101
111001001
1010011010
101111010
1001001100
111101110
1111111110101001
1111111101001000
1111110111001010
1111110100110001
1111111011001100
1111111101000111
1111111111001101
1111111111100000
1111111111101000
1110011
10111101
100110010
11000000
1111111101001100
10101101
1011101110
1111111
1000000010
111111100
110111101
1111110110001111
1111101110111000
1111111101010000
1011011010
10010100101
100101001
11101110
111111
111000100
1111111101000110
1111101101110011
1111110100000001
1111111000111111
1111111101100111
101010
110101
100011
111011
10000111
1000100101
10111101
1111111100000110
111000110
10010001
1111111100110111
101000010
11011100
1100000
1111110000001101
1111101111010111
1111111101011010
101010010
1111011110
101111011
100100110
11100101
1111111110000001
10011000
1111111011111100
1111110111111011
1111111100100011
1111111101110000
101010
1010100
110
10101
10110100
11001001
1111111110000110
111001
1001101001
11000111
1111111111110011
101101110
1111111111011010
1111111010001001
1111110001011101
1111101000011001
100000011
100101100
10010000100
1000000110
1100000000
101110001
1001010111
10001001111
1111111101010011
1111110011111001
1111111000111110
1111111101110001
1111111111001100
1111111111110011
1111111111111011
10011
1111111111111001
1111111101110000
100011
111010
1100000001
1101001100
11110
11
101111111
1000010
1111110000001011
1111101001100111
1001010011
1100110
10001110001
10100100100
1011100011
1010111000
10011
11000000
1111111100101000
1111110110000110
1111110110000111
1111111100110100
1111111111101011
1010
1111111111111000
1111111111101100
1111111011111010
101100
10100101
1111000
111011001
11101111
1011000
111100
100101111
1111110111010100
1111110100101100
1111111010010000
1011011101
110000100
1111110100
10011100100
11100
1111111100011010
11100011
1111111110111010
1111111011111010
1111110100110010
1111111000110001
1111111101000110
1111111111010100
111001
1111
10011
1111111010111100
10101
11101011
1111111101110000
1111111100101011
10111101
1111111111101101
1001
100001010
1111111010101000
1111111001000000
1111111111001000
1001001
10011001101
1001000010
101001010
101011101
1011
1011001
1111111000100010
1111110010100101
1111110101011011
1111111000111001
1111111111010010
1100
1111111111101100
10001
1111111111101111
1111111101110001
10001010
11000111
1111111101100110
1111111011110110
1111111101111000
1111111110101001
1111111000000110
1111111011110000
1111111001101001
1111111110010111
111011101
100001110
111000110
1111111000101100
1111111010101111
10110000
1111110011011101
1111111011011011
1111110101000001
1111110001111101
1111110111101011
1111111011010101
1111111110101000
1111111111000010
11010
101011
100011
1111111011111110
1111111111101110
10110011
1111111000011111
1111110110010100
1111110100000100
1111111001011010
1111110011101110
1111111001000001
1111111010100011
1111111010000010
11101101
1111110111111111
1111111100011011
1111111000110001
1111111100011001
1111111001101011
1111101111101010
1111110110010010
1111110110000101
1111111000011011
11010
1111111111101110
1111111111111010
110100
1111111111110100
1111111111101111
1111111111110011
1111111100101111
1111111100001101
1111111111100101
1111111100011101
1111110101001001
1111111011010000
1111110101110010
1111110100111010
1111111001101110
1111000
10
1111111100010111
1111111011010100
10001111
1111110111010111
1111111011101011
1111111101011101
1111110111010001
1111111001111101
1111111110000000
1111111111010111
100000101
1100100
10101
111010
1111111111000000
1111111111101001
1111111111011001
1111111101100000
1111111011011010
1111110111110010
1111110111000110
1111110100100110
1111111010101111
1111110010000000
1111111010011011
1111111101001000
1111111100000001
1111111011001011
1111111011010101
1010011
10110111
1111111110000111
1111111111101000
1111111101011001
1111111000101101
1111111011001011
1111111100100001
1111111101011111
11001
10011110
1111111111111111
11000
1111111111111101
1111111111111100
1111111111111101
1111111110010101
1111111011010110
1111111001010010
1111111001111000
1111111100000010
1111111110101100
1111110111010100
1111111110111011
1111111110001011
1111111011101001
1111111001000001
101001100
1111111111101111
1111111001011101
11100011
1111111010100000
1111111110111100
1111111110110100
1100010
1111111101011010
1010010
10000000
11111
1111111111111001
1111111111100000
10001
1111111111111111
1101011
11110
1111111101111110
1111111101001001
1111111100101111
1111111101111011
1111111010011000
1101
110110
1111111101010111
1111110101010111
1111110111000000
1111111011011111
1111111011101111
1111100
11101
1111111100000100
100000000
101101111
1000101
110000100
100000111
1111111111101001
1111111111000011
11
100110
10010
1111111111111001
1010
1111111111110000
1111111110111100
1111111110100001
1111111101101011
1111111011101010
1111111111001110
101010000
1111111110001011
1111111101101001
11110010
10111100
11101101
11000
1111111001101000
1111110101000110
11011000
10000
100000101
1011000
1111111110101111
1111111110001100
1111111110111100
1111111111100000
1111111111101111
1111111111111100
10
100011
1111111111100111
1110
1111111111010100
101110
10100011
1011101
1100000
10011011
1111111111001111
10001
1111111111001100
1111111011011010
1111111110111110
111000
1110
1111111111111011
10001
100010111
10010001
10001
1111111110011010
1111111111000111
1111111111110011
11111
11101
1111111111010011
101
1111111111000101
1111111111101111
1111111111100011
100
1111111111101101
1111111111100101
1111111110111100
1111111101111010
1111111111101101
1101
1111111111010110
1111111111000100
1010110
100000
1011
110000
111010
1100010
1010000
101110
1000
101111
1111111111101100
101101
1111111111111100
100011
1111111111010000
