1111111111011111
111101
1001
1111111111100001
101101
1111111111100001
10000
1111111110110010
11
1111111111011011
1111111111011001
111110
1010
1100
1111111111110010
10
1111111111111001
1111111111011001
101010
1111111111111011
1111111111100011
1111111111111000
1111111111110001
1111111111101011
1111111111011000
110001
1111111111110001
1111111111101111
1111111111110000
1111111111111001
1111111111101101
1111111111110110
10010
1111111111101011
1101
1010
10111
1111111111011101
1111111111011001
11011
10100
1111111111101110
1111111111101101
110
111100
100111
101011
11000
1111111111111001
11000
110000
1111111111000100
10100
11100
110100
101010
1
1111111111100111
1111111111000001
1111111111100000
1111111111101100
1010010
1111111111110100
1111111111111010
1111111111100000
110000
1111111111110100
1111111111011001
1111111111110011
1111111111111000
1111111111111001
1111111111011110
1111111111010110
11000
1111
10011
1111111111111001
1111111111100100
1111111111011110
1111111111101111
1111111111011110
101010
1111111111111111
1111111111001100
10110
0
11001
1111111111110111
1111111111100000
1111111111011110
101111
1111111111110011
110011
1111111111011101
1111111110111110
1111111111100101
1111111111001101
1010
1111111111110001
1111111111010100
1110
11
1111111111111001
1111111111110100
1111111111111001
1111111111110010
10
1100
1111111111010010
1011010
1111111111110001
10011
1111111111011111
100101
11
1011
1
10101
111
1111111111100000
111
1111111111111100
10001
1001010
110
101
1111111111110111
1100
1111111111110100
1111111111110000
11011
1111111111011011
101
101010
1111111111111010
1111111111010001
1111111111000001
1111
1111111111000010
10
1111111110111011
111101
1111111111111110
1111111111011001
100100
1111111111001000
1111111111000101
1111111111011011
1111111111100101
11101
101000
1
1111111111011110
10011
1111111111100111
1100
1111111111100101
100011
1111111111110110
1111111111101000
100010
1111111111111111
1111111111100001
1111111111011011
1111111111101011
100011
1111
10011
11010
110000
1
10011
1010
111001
10000
1111111111111110
1011
11011
1111111111101111
1111111111011010
1100
1111111111101010
1010
1111111111111100
1111111111100000
1111111111100001
100110
1110
1000001
1111111111011110
110110
1110
1111111111111100
0
1111111111100110
110
1111111111111110
1110
1111111111101000
101
1111111111101100
1111111111011011
101010
1111111111001100
1111111111111110
1111111111111110
1111111111111010
1111111111101010
1111111111010100
1111111111101010
11000
10
1111111111101110
101000
111011
1111111111010001
1111111111010111
0
1111111111100001
1111111111001001
1111111111011000
1111111111100111
10100
11010
10110
1111111110111100
1111111111110101
1111111110110011
101000
10111
10011
1111111111010010
1
1111111111100100
1111111111111110
101110
1111111110111010
111010
1111111111010011
1111111111110100
1111111111110100
1111111111011111
1111111111011000
1111111111101101
110011
1111111111111101
1111111111101001
1111111110111100
0
1000000
1000
1011
1111111111001101
1100
1111111111111010
1111111111110110
10101
100000
1111111111111101
10010
1
101101
10100
1111111111010111
101000
100001
101101
1111111111101101
100011
11010
1111111111111111
11001
10010
11000
1111111111111011
1011
1111111111110011
1010
10111
100101
11
1111111111100110
1111111111110110
1111111110111101
1111111111110110
1111111111101111
1111111111000000
1111111111101100
1111111111110110
1111111111011101
10100
110101
110001
110000
1111111111001100
1111111111111100
1111111111101000
1111111111111000
1111111111111001
1111111111111100
11
0
1111111111101100
10
1111111111011010
100100
1111111111111001
1111111111001101
10
100
1111111111100101
1011
1111111111000010
1111111111010111
101011
10001
1111111111100100
10001
111001
1111111111101101
100001
11001
1
11101
1111111111011101
11100
110010
10001
10001
1100
1111111111000111
11001
1111111111100001
1111111111101110
1111111111111011
1111111111001101
1011
11000
1111111111100111
11111
1111111111111011
11011
1111111111110011
101
110000
101000
1111111111100110
1111111111000001
110010
1111111111101111
1111111111111110
1111111111110100
110
101101
1111111111110100
11100
1111111111101111
111001
1111111111101011
1111111111101111
111111
1
101100
1111111111101000
0
1010
1111111111111100
1111111111100111
10010
110
1
1111111111110111
1010
11
1111111111000100
1111111111011001
10110
110
100110
100010
1111111111111100
1111111111111010
11
1111111111110001
11110
10011
1001
0
1000
1000000
1111111111110111
11100
111000
1000000
1111111111101111
111000
1111111111101100
1111111111111100
1111111111000111
1001
1111111111111001
1010
101011
1011
101001
1111111111011110
1111111111100011
1111111111110100
1111111111001111
100100
100111
1111111111110010
1111111111111111
1111111111111111
1000
1111111111010001
1111111111101011
100111
1111111111111111
1001101
1111111111111111
1111111111111111
100111
11100
1111111111110101
1111111111010000
1111111111101000
1111111111101010
1111111111111001
10
11010
1011
1111111111110001
10011
1111111111100011
1111111111101100
10101
111001
10100
1101
1111111111101011
1111111111110000
1111111111001100
1111111111111100
1111111111010101
1111111111111000
1111111111101101
110001
111010
1101
1111111111110101
100001
100
0
11010
1111111111110101
1111111111111111
1111111111100001
1111111111110011
1111111111111010
1111111111001110
1111111111110010
1111111111111110
11011
0
1111111111001110
1111
1111111111001000
1111111111010001
101
1111111111011010
0
0
1111111111000111
1111111111111010
1111111111101010
1111111111111111
1111111111110100
1111111111111100
1111111111011110
1111111111011110
101011
1111
1010
100110
1111111111110001
111
1111111111110101
101
1111111111100011
1111111111110000
10001
101101
1111111111110111
1111111111111001
10000
100001
1111111111001110
1111111111111111
1111111111011111
1111111111011010
10110
1011
1111111111110101
100011
1110
1111111111100010
1111111111111101
10110
10100
111
10101
1111111111100110
1111111111110011
10101
100001
1111111110101000
10000
1111111111111110
1100
100101
11
10100
1111111111110000
1111111111110001
100110
1000010
1
1111111111101010
1101
1111111111110010
100001
1111111111100111
1111111111110001
1111
1000
111
111001
1111111111110000
100000
101
1111111111110001
11111
1111111111101000
1111111111011110
11110
110101
110010
1111111111100011
10000
1111111110111110
1111111111101110
1111111111010000
100
1111111111101101
1001001
1000000
10001
1111111111101001
10110
1111111111101100
1111111111011011
1111111111110111
111111
100000
110
10110
1111111111101111
1111111111101000
110010
1111111111111001
11
11001
1111111111001010
1111111111101101
1111111111011101
1111111111100100
11111
0
1111111111100101
1111111111111100
100
1111111111011111
1111111111011100
1111111111001101
10100
100
1111111111101110
1011
1111111111110101
1111111111100001
1111111111110010
1111111111000001
11110
1111111111111111
11010
11010
0
1100
1111111111101110
10111
1111111111101011
1111111111110111
1111111111111101
1111111111111000
1111111111101110
111010
100011
111010
10100
1111111111000011
1111111111111101
1111111111101101
111
1111111111101100
11000
1111111111010010
11011
1111111111111100
1111111111100111
1000010
1011
1111111111001101
1011
1111111111111000
101
11000
1111111111010100
1111111111111100
110
101001
110010
1010
1111111111100100
101
11
111110
101000
100
1111111111000101
1111111111110011
1111111111101100
1111111111111101
1001
1111111111101110
11111
1111111111011011
1111111111111010
1111111111111001
110011
1111111111111000
1111111111010100
100101
1111111111111010
1111111111011110
1110
100110
1111111111000100
1111111111011110
1111111111000001
1111111111100011
1111111111001011
1111111111100110
1111
1000
1111111111110111
110001
1111111111110110
10001
1111111111011101
1111111111111111
1111111111110001
1111111111100110
100111
1111111111100000
1111111111110011
1111111110110000
1111111111100011
1111111111101110
1111111111011001
0
1110
11000
1111111111100111
1111111111100010
10000
1111111111010101
11000
100001
1111111111010000
1010
110100
111
10
1111111111011001
1111111111110001
1111111111110110
1111111111100110
1111111111111101
1111111111100101
1111111110111101
1010
100010
101111
11001
1111111111100111
1111111111111010
1111111111101010
1111111111001110
1111111110101001
1111111111100010
1111111111010010
1111111111011111
1111111111000011
1111111111101010
101000
10000
1111111111010001
100011
101
1111111111110001
11001
1111111110111011
101010
101010
1111111111111110
110000
11
100000
1111111111110110
1101
101001
100101
110011
1111111111101001
10010
100111
1111111111101101
1111111111111101
10001
1111111111101100
1111111111111100
1111111111110100
1111111111100000
10010
1111111111100011
1111111111111010
1111111111111100
110
1111111111101010
100001
1111111110111100
1111111111111001
1011
10
1111111111110010
1111111111000011
1001
1111111111110010
100111
11111
10010
1111111111010010
110111
1111111111110101
1111111110100010
1111111111111100
1110
1111111111101110
1111111111111111
1010
100001
111
1111111111100100
1011
0
1111111111110100
1111111111100110
0
101101
10110
10111
100
1111111111111100
