1111111111010010
100110
1111111110101011
110000
10111
1111111111111100
1111111111011010
1111111111101000
1111111111101101
10
1111111111010101
1111111111101110
1111111111110110
1101
1111111111101010
1111111111100100
100101
110110
1111111111101110
10001
1111111111110100
111110
0
1111111111110101
110000
1111111111010111
1111111111101100
10100
1110
1111111111110001
11010
1111111111110110
1111111111101101
1111111111110010
1111111111110001
1111111111111110
111001
111
1111111111111001
1111111110101111
1111111111001010
1111111111011101
1100011
1000010
100000
1111111111011010
1111111111011000
111011
1111111111011101
1111111111110101
110001
110000
1111111111111100
1111111111100110
110011
111000
11010
1111111111100000
101101
1011110
1111111111011101
11
1111111111110000
1111111110100101
1111111110000011
1111111111001100
100100
1111111111011100
1111111100010101
1111111110110000
1111111011111011
1111111100011110
1111111101011010
1111111011001001
1111111011000010
1111111100110101
1111111111110111
10111
100111
1111111111101010
100011
1010100
1111111111010001
1111111111110111
1101
1111111111100100
1111111111011011
1111111111110001
10100
1101100
100110
101110
1111111101000110
1111111011001110
1111111110001011
10001000
1100011001
1110001100
11111
1111111011000001
1111110110110001
1111101110010010
1111101111010110
1111110101101000
1111111101011110
1111111111011011
1110
1001
1011011
1111111111110100
11100
1111111111101000
1111111111110110
1001
1111111111110000
1111111111100110
101110
11101011
111100010
1111101
1010011101
1000011100
1000111101
1000001101
1110111011
100000000
1111111011001100
10001
1111110010100000
1111110110011000
1111110011110000
1111101100111110
1111101111010100
1111110111110101
1111111001110101
1111111110001001
100101
110001
10000
1111111111100111
1110
1111111111100001
101101
1011
101010010
1011101010
1101010100
1011110111
100101001
100110
111001110
1111111101010100
1111111100010111
1000011000
111001110
10100001100
1111101
1111110011100101
1111101111100001
1111100101010010
1111100100101100
1111110011010101
1111111001100010
1111111100000100
1111111110001011
1001
10
1111111111110011
10
100
1111111111111111
11100
110101001
1011010110
1110101001
110101101
11000110
110111000
1000100100
1000001001
1000
101010
1010101
1111111100001111
11010101
1111110010101100
1111111010110100
1111101000011101
1111100110101110
1111110010001101
1111110111111010
1111111011001011
1111111100011011
1111111111000100
1111111111010000
10110
1111111111001000
1111111111110010
110101
10011010
1001010011
1001000110
100101000
1111111100011001
1111110100101100
1111111100111000
1111111011011000
1111111111000110
1111111101000100
1111111110101111
1111111110001100
1101000
101001
1111111111000111
1111110010111000
1111100111100011
1111100001111000
1111101000001100
1111110000011010
1111110111000010
1111111011111010
1
1111111111101111
1111111111100111
1111111111101001
1000
1111111111101000
10011100
1001100111
11100010
1111111100000000
1111111110001100
1111111100101001
11010110
100001011
1111111011111000
1111111000101011
1001110111
10011011001
1100100101
1111111100011001
1111111110111010
1111101111000011
1111101011010111
1111101000101111
1111101110001111
1111110100100101
1111111000001000
1111111100001101
1111111110110001
1100
1111111111100000
111010
1001
101
10111
11010101
1110100
1000111
11001000
1111110101111101
1111110110110100
1111111010100001
1111111100001110
10001101
1111111101
100101010110
11011100001
111100100
1111111101000100
1111110001100101
1111101101001010
1111101000000011
1111110000010011
1111110110000100
1111111001000100
1111111101111010
1111111110001001
1111111111000110
101011
10011
1111111111101111
10110
1101001
1111111111111000
1111111111010100
11100
1111111011010110
1111101001010101
1111110100010101
1111111110110000
11101001
1010101100
11000110111
100111101000
11010000011
1000101111
1111111001100000
1111101001110010
1111101000101010
1111101100001001
1111110100000110
1111111011010010
1111111101101001
1111111110100101
110
1111111111100110
10001
1111111111100011
1111111111111010
101
1011111
1111
1111111010110100
1111111010111010
1111111010010110
1111111011010000
1111111101100111
1111111010010000
1101010000
1100100011
101011111
1001111011
101101011
1111110110100101
1111110100001101
1111101100000010
1111101010011111
1111110101111011
1111110111111101
1111111001101010
1111111011011011
1111111101010001
1111111110101111
1111111111000011
1111111110101011
1101
1111
1010
10011001
100101
1111111110110100
1111111101010111
1111111101110010
110000100
101100111
1111111110011111
110100111
111011110
1011011100
10011101101
10000110
1101111011
1111110010110110
1111110110111100
1111111101011111
1111110101011110
1111111011000010
1111111010001001
1111111011011110
111000
100110
1111111101111001
1000
1111111110111101
1111111111001100
110
1011100
1011010
101101
1111111111011111
1111111110110100
1111111101111011
110000111
100100110
1111110101101000
100110100
1011101001
1011000111
100101101
1100011110
1111111101010001
1111111001110111
1111111010010111
1111111101100001
1010110
1111111100100000
1111111111111000
1111111111000001
0
1111111111001111
111010
100011
1111111111011100
101010
1101010
111011
1111111100110100
1111111000000111
1111110100100001
1111111011000100
10110011
11101110
1111110010010100
1111111100101101
1111111111100111
110000100
1111110111101010
11011
1111110011011000
1111110001000100
101101000
1111111101010011
100001000
1111111100001011
100011100
1110011
10110000
1110001
1111111111010011
1111111111111111
1111111111101110
10111
110011
1111111110111111
1111111110110111
1111111010101101
1111111010001100
1111111010110010
1111111011101001
1111111010100010
1111111010011111
1111111110110111
1010101111
1011110111
10
10010101
1111111101111101
1111111000010001
1111111100111000
11101001
1010111
1111111001110111
11010111
110010100
10000000
100000110
11000
10111
10100
1010
1111111111100100
1111111110001011
1111111110010010
1111111101101100
110110
1111111011010001
1111111010110100
1111111010111011
10100001
1111110111100101
1111111100010101
111001101
1111101110011100
1001000
1111101101000100
11111111
110011111
111101111
11011111
101100110
111010110
1010010110
100001000
10101110
1111111111100111
1111111111100111
1101
111011
1111111110101111
1111111100100111
1111111101100011
1011100
1111111101000000
1111111010010100
100010111
1111111111010100
1111110101011110
1111111011011010
1111111110000101
1001001011
1111101110010100
1111111010101110
1111111110101001
1111111111001110
1110001
1111111110011101
1000100000
111111111
1100000001
11100110
100000111
11100011
1111111111110010
100000
11110
0
1111111111100111
1000111
1111111111101101
100000001
1111111101110110
10010011
1111111111110100
1111111010100111
1111110110000011
1111110111000111
1010001
1111111111111011
1111110011000000
1111110001111001
1100
1111111100001101
1111111101011111
11010111
1100101101
1010100011
101110101
101101101
100000110
101101
1111000
1111111111111111
100001
1111111101000101
1111111101101000
110000
10110
10011001
10101000
1111111011100011
1111111011101110
1111110111000110
1111110111101111
1111111100010000
1000000
100001000
11001100
1111111111100111
1111111110011011
1010001111
1101010
11100011
1111111110110011
111101011
10001110
111101000
100110000
1001110
111110
101011
1001100
1111111110001000
1111111110011110
1111111100001011
1111110110101011
1111111101001010
1000110100
1111111000011111
110010011
1111111011000100
1111111110110100
1111111110110111
1111111110010110
1001110110
1111111110001001
1010010
100100101
11000111
1111111100000000
101010100
1111110111001110
10100000
1111111111110101
100101010
1100101
0
1111111111001001
1111111111101010
1111111111100101
100
10101
1100010
1111110001111001
1111110111001000
10011
100010101
10000101
1111111111100001
1000011
1111111101110010
1111101111110110
1111111110000000
1110100
1111111110011101
1111111000010000
1111111011010011
11011100
1111110001011100
1111101101111011
1111111100111101
1111111100110101
1111111110110101
1010010
1011000
0
101000
1111111111111110
1111111111101010
1100
100111110
1111111101001010
1111111110100001
11000011
1111111110100011
100010011
11000001
1111110110010001
1111110111010100
1111111101000110
1011011
1111111110000001
10100111
1
1110101011
10000111
1111111101110100
1111111010110100
1111111111001000
1111111101100001
1111111111011111
1010011
1111111111111111
101101
1111111111001010
1
10
1111111111011100
1101100
1111111111010011
1111111101101101
11001100
10000100
110000111
1111111011100000
101101100
1111111101000010
1111111011001111
1111111100010110
1111111001101111
1111110101100000
1111111111101111
10000100
11100101
100101010
1111111110001010
1111111010011011
1111111101010001
1000
1111111111110111
1101000
100
1111111111101100
11011
1111111111000111
100001
1111111111011001
101110
100101
10100011
1101110
1111111101110100
1111110110000110
1111110111100001
1111110110110001
1111111011010010
11001011
1111110100111101
1111111101000100
101100101
10010101
10111100
11100110
110110
1111111100111110
1111111110011110
1001
1111111111110001
1111111111001110
1111111111110011
10011
1111111111001110
10011
10010
110111
10100011
10111110
100111110
11110110
101100
1111111010101101
1111111111011100
1111110111101100
1111111001111100
1111110110000111
1111111010010101
1111111101010011
1111111111000110
110100
1111111110111110
1110010
101110
11001
1111111110110110
1111111111000010
1111111111111010
11010
1111
100001
1
1111111111110111
0
1111
1111111111111001
1111111111101000
100
1111111111010111
1111111111100100
1111111110010011
1111111110010100
1111111011101010
1111111100100100
1111111100101010
1111111100010000
1111111101001101
1111111110011110
11100
1111111111110110
1111111110101110
1111111111110000
1111111111100101
10011
1011
10001
101
110001
1111111111110111
1111111111110101
1111111111110000
101000
10110
1111111111010010
110010
1001100
1111111111100100
1111111111010101
1
1111111111100111
1111111110100100
1111111111100100
1111111110111100
1111111111100110
1111111110111011
10000
111000
1001
11000
100001
1001
1111111111111101
11111
10111
1111111111000101
11001
