1111111111100100
1111111111001000
1111111111101110
1000
1111111111111001
1111111111111101
1111111111011000
11
101110
1111111111101110
100001
1111111111110010
11011
1111111111000100
1111111111111100
1111111111101000
1111111111100101
100110
101010
1111111111101001
1111111111010000
1111111111101111
1111111111110110
1110
10
1001
1111111111101100
10
11101
101101
1111111111100101
1100
11000
100110
100
1111111111110101
1111111111111000
101101
1000101
1111111111111001
1000
100
1111111100101011
1111111010010111
1111111110111101
1111111110111010
1001
1111111111100001
1111111111110010
1001001
11010
110111
111011
1111111111111111
11011
1111111111100011
11000
0
10010
1111
1111111111000111
1111111111111000
10101
1111111111110110
10001
1110100
1111101
110001
1111111101011010
1111111110011101
1111111110001000
1111111001001011
1111111110100010
1111111111010011
1111111101011010
1111111111001100
10001101
110000
1111111110010101
1111111110010110
101111
1010000
1111111111010010
11011
1111
1111111111111001
1000111
1111111111101101
11011
1111111111101111
1111111111101111
1111111111110001
100001110
11001000
1001101101
1100101111
1100100011
1010101010
1100000001
110010001
1011000001
1010011110
10101111
1111111111011010
1011001
10110011
1111111010101110
1111111000111001
1111111110110011
1100
1111111111110100
1111111111111011
1111111110010010
10101
10001
11000
110011
10000100
10000000
1101010
100000011
111001011
10001010100
10000010001
10101110110
1100101010
1010111010
110101011
1000011110
110011111
110111010
100100100
10110
11011111
1111111001100000
1111110111111111
1111111111001110
10001
10
1111111111010101
1111111110111101
1111111111000000
1111111111011111
1111111111000101
11111
1111111111101011
1000000
100001010
10110001
100111101
1101111011
1011000000
1100101110
1000111101
1000101
11111100
1011000111
1111111111001101
101100000
100110
100101010
1111111101110001
1111111000011010
1111111010001000
1111111101111110
11
101000
1000
1111111111010011
1111111111110110
1111111110111011
1111111110011011
100011001
111100001
111111010
100011111
1001111010
1011101010
1111110100
1010111011
10111110
10001111011
111100101
101110101
1001000100
1101101
10101110
1111111111100010
1111111110001110
1111111110110000
1111111010001110
1111111100110010
1111111001111100
1111111110111100
1111111111111000
1
111
111111
10
10101100
1100001110
1011000110
1010110000
11011000
101011111
1111111110111010
1111111111111100
101001110
1101110
110000010
101011111
1111111101010100
1111111001111110
1111111111001000
1110
1010110100
101011011
11001101
10100
1111111001001111
1111111001010110
1111111110001010
1111111111010010
1111111111110100
1111111111101110
1111111111011101
10001
11001010
1011111001
1001110011
101110101
110101000
100111000
101010000
1111111110001001
1111111010101000
1111111101100011
1111111110010011
1111111010101010
1111111110011111
1010001110
100101010
11111000
111110110
10000100
100100100
1101110
1111110101001110
1111110100101111
1111111111001001
1111111111111001
1111111111110011
110010
1111111111111000
1111111111110001
10011010
1000111110
100101101
1111111100110110
1111111000111001
1111110100010111
1111101111111111
1111101000101011
1111100110110111
1111101111110011
1111101001011101
1111111010011001
1001100110
11100001
100111100
1111111111010100
1011101
1100001
11001011
1111111010001100
1111110011001010
1111110011110001
1111111111001100
1
1111111111101001
10
1111111111011110
1111111111011111
111010
1111111110011110
1111110110110010
1111101101010110
1111011111011011
1111010111000110
1111100001110111
1111100010110000
1111101010111010
1111101011110100
1111101111101111
1111111000111010
1111111000000110
101000011
1010110001
100000110
111100011
1101100100
1111111110111010
1111111100110111
1111110101011001
1111111001111110
1111111111110101
1111111111011011
11111
1110
1111111111111001
1111111111001101
1111111110011001
1111110101010010
1111101110100010
1111100100011001
1111011110110101
1111101010001001
1111110011000100
1111111000100100
1111110111110100
1111111100101001
1111110110101111
1111110110101101
1111101110001100
1111111110101011
1111000010
1000000010
1011011010
1011111001
1111110100010010
1111110111001001
1111111000101011
1111111110000100
1110001
1101
11000
1111111111110111
1111111111100100
1111111111010110
1111111100001000
1111110110001011
1111110001110111
1111101010111010
1111101101111001
10000000
1111111111011000
1010001101
1000100010
100110101
1111111111110000
11110110
1111110110011010
0
1111111010011011
100011
11111100
101000101
1111111110110000
1111111100010100
1111111001100100
1111111111110011
1011101
101
1111111111010000
1111111111101100
1111111111011000
1111111111000110
11001
1111111101011000
1111111100001011
1111110011101000
1111111000110011
1000101100
110011001
1001000101
100000000
11111010
1001011010
1111111100111011
1111111110100110
1111111010001100
1111110111110001
10000
1111111111001000
100110101
1111111100011110
1111111100100011
1111111110010001
1010110
100000110
110001
1111111111010111
1111111111110100
1111111111001010
1111111111101101
100011100
111001100
1000101
100010
111101100
1000101
1111111100000001
1111110111111000
1111111100010101
10110011
1111111110010100
1111111100110101
1111111001001000
1111111001010000
1111111111100000
101001101
1001111001
1111111010011101
1111111011101000
1111110111001010
10101
100010100
110100011
1001110
1111111111001100
101001
111100
1101
101010010
1011100010
110001111
1000100001
1111111111101000
1111110101001000
1111111000101111
1111111101001000
1100111
1111111000010010
1111111101011100
1111111010101100
1111111011010101
100001100
10101100
10101110
11111101
1111111011000011
1111111001001010
1111111100110001
1101000
101010100
100001000
1100111
10
1111111111101000
1111111111111110
110101
110100001
100001010
1111110
1010001
10110110
1111110101000110
10010
111100
1111111011101101
10000111
11111000
1111111001011011
1111111001111111
110101010
111001011
110110100
1010000
10100000
101001000
101110101
10010000
110010100
100000100
10010100
100010
11010
1111111111111110
1001110
100111001
1000000110
100100011
1111000
1111111100011001
1010011
110001
1111110000011101
1111110011100001
1111110101000100
1111111001111111
1111110100001011
1111111111100001
111100
1111101
110101001
10011101
1111111101010001
10010111
100001111
11111010
101011
11010111
10001101
11001
1111111111111101
11110
101111
110101100
1100011011
1010111000
101101101
1111111
11011001
1111000
1111111001010100
1111111001111100
1111111110010101
100111100
1111111100101101
1111111110110111
10011000
1111111110011110
1000110111
1001001110
1101011
1001001001
1010110011
110011110
110100011
11101000
1100100
11000
10110
111101
1111111110000111
111000101
111110110
1100000110
11001110
1111111111101011
100
111000011
1001100
1111111010110000
1111111110110010
10001010
10000101
101100000
1101010001
100011100
110001101
111
1100111
111010111
111101111
100000101
100111111
11101011
1000010
1100
11111
1111111110101000
1111111110101100
111100101
1000010011
111100101
101101000
100001
1111111110111100
11010001
10010111
11001010
1111111100101000
1000110
1000110
1110000
1111111101110000
10011011
10000011
1111111110000000
1001100
1010000101
101001110
11010101
10001101
101001
1111111111100101
1111111110110000
11010
1111111111010110
1010000
11001000
100000000
11010000
1111111111101010
1111111110101011
1111111111001110
100011111
1111111101111001
1111111000001001
1111111010100001
1111111101001001
1111111100011001
1111111100100010
101101101
100101101
1011110
100101000
1111111001101101
1111111110101000
100100111
101000000
11011
110
100010
1111111111101001
1111111111110001
1111111111100011
10010
10100101
100011010
1111111110000001
1111111100100000
100100010
1111111110001000
1111111001100000
1111111011000110
100010001
11001011
1111111001010101
1111111100100001
11100
1111111100010101
1111111101110110
1111111110000101
10010011
10100
100100000
11011101
1000
111000
100101
10100
111010
1001000
0
110100
11100111
10110111
10000101
1111111101011000
101000101
1111111010101101
1111111111011110
1111111101011010
111001111
1111111000001111
1111111111010000
100110011
1111111111010011
1111111011010110
1111110101000001
10011011
1111111100010101
1100100
1110010
10010
1111111111101100
1111111111001010
1111111111001001
1111111111110101
101111
110110
1111111111110110
1111111111110110
10110101
100010001
101001110
110011100
11100010
10101101
101001
110010011
111011001
101111
110001001
1110001011
111011111
1011000
111000001
1111111110110111
1111111011011000
1111111110001110
1110100
1111111101001011
1111111101100001
1111111111011110
1111111111100100
1111111111010100
1111111111111111
1101
10
1111111111111110
1111111111111101
101101
10101001
101110101
110111010
110001
11111100
1011001010
1001101111
1111111110001100
1111111110000100
1111111101100000
1111111110010111
1101
1010000
11110
11110
1111111110100101
1111111101100110
1111111110110010
1111111111001101
1100
1100
100
1110
10010
1111111111111001
100001
0
10010
1111111111101100
1111111111111000
1010
1111111111110001
1111111111101111
1111111111100011
1111111111111111
1111111111000000
10101
1111111110011101
1111111111011000
1111111111000110
111010
100001
10000
1111111110111101
1111111111101001
1111111111110000
111
101011
1001
10010
101001
1111111111111000
1111111111110000
1111111111010000
1111111111110111
1111111111100000
1001
100101
1111111111010001
1001
1111111111011000
1000001
10111
110010
1111111111011001
1111111111011111
1111111111000000
1111111111001111
1111111111011000
1111
10000
1111111111100110
0
1111111111110000
1111111111011100
1111111111111110
10010
1
1010
