1111111111001101
1
1111111111101000
111110
1100
111000
11100
1111111111110011
1111111111000110
1001
100111
1111111111100100
110101
101111
101
110001
1111111111010001
1111111111111110
1111111111111010
1011
11110
1000
1111111111100101
11111
110
1010
11110
1111111111001001
1111111111110100
1111111111101101
1111111111111101
11
1111111111101010
1110
1010
1111111111100011
1111111111111110
1111111111101001
1111111111000101
1111111111100010
1111111110011010
1111111110110101
101010
1011000
10001011
1010110
1111111111110101
1100010
1110010
1111111111111110
1111111111100001
100010
1111111111110110
101010
1111111111111110
100100
100010
10110
1111111111110011
1111111111100011
1111111111100110
1111
1111111111010100
1011110
1111111111001000
1111111011110010
1111111100110000
1111111011100101
1111111111011110
11011
1111111110101010
10000100
1011100
1001010
1011101
111
11111
1001
1111111110111010
1111111111101001
1
1111111110110001
11011
1111111111110110
1111111111100011
10111
1111111111101010
1111111111010101
1111111111100000
1000000
1001001
1110010
1000100
1111111100010000
1111111000101010
1111111001011100
10110010
100000100
110111
100111101
100011001
111010
1100010
1111111111110101
1011000
1111111101100101
1111111110100111
1111111101010101
1111111011111010
1111111111100000
111100
10011
11101
0
111100
110
1111111111010101
110001
1111111111010111
1001
1111111110001011
1111111000110000
1111111000000000
1111111100100011
1111111101010010
1111111110011111
1000101101
1000101100
110001001
1111111100001111
11100
1111111100100111
1111111011100111
1111111100101001
1111111000011001
1111111100100110
1111111101011101
1111111111001010
1000011
1111111111101011
1111111111100000
1111111111100101
1111111111001110
1110000
11000101
101101100
1000100
100001
1110101
1111111011000000
1111110001001011
1111111011011000
1111110110001010
1111110110101100
1111111001011111
1111111011110100
1100
1111111000000100
1111111001011110
1111110101110001
1111111000111101
1111110101110010
1111111110010100
100100
1111111011110010
1111111100111011
10011
11000
110010
1111111111101011
1111111111111111
11110001
1000010000
1001010011
10010000
1111111001101100
1111111100011110
1111111101010000
1111111000010011
1111111101010111
101101111
1011000
1111111010100110
1111110101011110
1111110010011001
1111111000000100
1111111011111100
1111111011000000
1111111100001100
1111111101010000
1111111111001100
1111111000110001
1111111110101011
1111111010010100
1110000
1001011
110
110101
1100001
111000101
1000011111
100001000
110011100
11001010
1111111011110011
11001100
11101000
101011
110001111
1111110110000101
1111111101100110
1111111011000001
1111111111010010
1111111110101101
1111111100101010
1111111001111111
100011110
1111111010001010
1111111101011001
1111111110010011
1111111101101011
1111111110010010
11
100101
111010
1101111
1110111
11111111
1001011100
110001
100111
1110100
110101000
101010001
1111111111001010
1111111001111110
1111111100010101
1111110100110110
1111111101100111
1111111011000011
1010110
111100000
101010100
1111111111001111
111100010
110000001
1000000001
1010010100
1100110011
101001010
1111111100100101
100010
11101
1001100
1000111
100001010
1010001011
110011010
1100110111
10101101
1111111100110111
10110
1111111001100001
1011100
101110100
11110110
1100101001
1100001010
1001001101
10001000001
1110110001
101101110
1100111110
1001111111
1100011000
100011001
10000010110
1010101011
1111111010110101
1111111111111111
10110
110001
11000110
111010011
1001001110
1111111101111101
100000010
1111111011011011
1111111101000000
100111001
1000111011
1000111100
1111111111110010
10101011110
1101101110
10010101100
1100110010
1000100111
1100000101
1101001110
1101101100
1101001100
110110100
1101111001
1111001100
10001000001
1100111
10011
11100
100000
111001110
111010101
111001001
1111111010010010
1111111111011110
1111111101011111
1111110101100001
1111111111010011
1111111001110101
100110101
11111101
111101101
111111110
1011001110
1111111111101001
100101001
1110010100
1000100110
100001110
10000000
1111111111010111
1111110
100001100
1011110000
10011100
1111111111110000
1111111111011110
101011
11010110
11000
100010111
1111111001011011
1111111110000010
11000101
1101001
1111111101111110
11100100
1111111011100000
1111111111101100
111111
110111
10111100
11011001
1111111000110100
1111110100001001
1111110011100100
1111110011110111
1111101101101101
1111111000100000
1111110000101100
1111111001010111
10110110
11001111
1111111110101001
1111111111100101
11110
10111110
1111111100100010
1111111111010000
100111100
11101
1111111000010011
1111111101000001
1111111001111010
1111
1011000
1111110110110101
1111110001010111
11011
1111101100111110
1111111010001000
1111110110000111
1111101100101110
1111110001111001
1111111000010011
1111110110101010
1111110010001100
1111110001000001
1111111000110000
1000000
1111111111011010
1111111111000110
1111111111101001
111000
10100010
1111111111101111
1111111101111111
1000010111
100011001
1111111000001001
11100111
1100100
1001111
1111110110000101
1111110001100110
1111110000101110
1111111000100110
1111111000111110
1111110101010110
1111110110000000
1111111011111001
1111111001000100
1111111010001011
1111111110001101
1111111010110111
1111111001010010
1111111101010111
1111111101011101
1111111110100001
1100
1111111111101101
1111111111011101
110111
10001
1100001
1110001
1010110000
1000111110
1111110101111001
1111110111011110
1111111001101101
1111110111001100
1111111000000010
1111110011110100
1111110111101011
1111111111110101
1111110010010011
1110
101010011
101101001
1111111110110000
11110111
1111111101101010
1111111100110110
1111111110010100
1111111001010111
1111111101111100
1111111111101101
11110
100111
110111
101100
111100100
1000111
1111111000000011
1111111001110110
1111111110111000
1111110111100101
1111110111010100
1111101001001101
1111110000011110
1111110010000000
1111110010000101
1111110101100111
1111110110100110
1111111100010111
100
11110010
110101
1001110110
1111001
1111111100101111
1111110111111011
1111110110011111
1111111101110100
1111111111011000
11011
100110
1111111111110111
1110010
1111111111111100
10011010
1111111011000100
1111110101011110
1111111001011010
1111111001111000
1111111100010111
1111110010100100
1111110101100111
1111110011110011
10010001
1000111
1111111101111111
1
1111111001101100
1111111110011010
1111111111000011
1111111010000101
1111111100001010
11001010
1111111010101110
1111111100111110
1111111110111001
1111111111100000
1111111111010101
10
10001
1111111110111010
1111111100100100
1110010
1111111111110001
1111111110001001
1111111110010111
1111111000011101
1111110001110001
1111111000000110
1100111
100010110
1000000101
1111111111100010
1111110011101001
1001000100
1111111110101011
1111111110110100
1111111010010111
1111111100101010
100000
1111110111111011
1111110110000001
1111111100100000
1111111111001101
10101
1100
1111111111011111
1001001
10000101
101010010
1111111
1111111111011011
1111111110100000
10111111
1111111010010110
1111111101101110
1111111101001101
1111111101100101
10001101
1111111101100101
1111111010111001
110110100
1000011101
1111111101110101
1111111110001111
1111111100011011
1111110110001011
1111111101110110
1111111101010010
1111111010100011
1111111100111000
1111111101101111
111
1111111111110100
10110
110010
10110
1011011
1111111110000010
1111111100001000
1111111101010101
1111111110110011
100001011
1111111101010100
101110110
10110110
1111111111000111
1111111111010000
1111
1000
1111111111111110
1111111001100101
1111111111010011
1110000
1111110100011000
1111101
1111111
1111111011000111
1111111110000010
1111111111101101
11011
101101
1111111111011010
101000
1111111111010000
1111111010111101
1111111010101001
1111110011011101
1111110101000110
11011000
1110101
1111111111100000
11101011
1111111000010111
1000101
1111111000000110
11110001
1111110100100100
1111111111001100
10011
101000111
1010010010
0
1111111101100001
1111111110011110
1111111101110100
1111111111010101
1111111110111100
100011
1111111111011110
1111111111110110
1
1111111111011011
1111111110101000
1111111100011001
1111111100101001
1111111100100110
1111111011011011
1111111101011111
1111111110101001
1111110110101000
1111111111001011
1111111011001011
1111111001000100
111011
1111111101000010
10111001
101000101
1111111100010011
100000110
1111111001111010
1111110111110011
1111111011101001
1111111101110000
1111111111101100
11000
11011
101000
1111111111100110
10110
111111
11101001
100110100
1011001
1010000
10101001
1111111111010101
1111111011000010
1111111101010001
10110000
1111111111010100
1111111001101111
1111111111000100
1111111110101000
1111110110100011
1111110101110100
1111110111010000
1111111010010001
1111110011110001
1111110100010101
1111111100000010
10111
1111111111011110
0
1111111111110101
11101
1111111111100100
1111111111100011
1000010
10110010
100101001
101110101
101110100
101001010
0
101101101
1111111110011011
1111111010001010
1111001
1010010
1111111101000000
1111111101000011
101001110
1111111011110110
1111111010111000
1111111101101001
1111111011010111
1111111010110100
1111111110001010
10000110
1111111111110111
11000
1000000
1111111111100111
1111111111110011
10001
1111111111011010
10100100
10101010
1111111111111001
100101000
10111101
1000011111
111001110
1011100111
1000111011
1010000001
10000000111
101010010
1101000000
1100000001
1010111010
1001111010
10010000
1111111111111101
1010000
1111111111001001
1001111
10100
1111111111111110
1001010
1111111111011110
11111
110111
10010
1111111110011010
1111111111101001
1111111100111100
1111111101001010
100001
1010111
11111
101011010
101101001
1000100000
101111
111101010
111110000
10110010
1000001001
1011101111
101010111
11010011
1010001
1111111111110110
1111111111100110
1000001
11000
101111
1111111111010101
100111
11011
1111111111110001
1111111111100001
100000
110001
1010001
10000111
11100
10011010
1100000
111
110111
1101101
1111111101000001
1101
1
1111111111001001
1101000
1111111111010101
100011
1000011
100101
1111111111110110
1111111111110101
1111111111111001
1
