10010011010
1111101000000111
1000000011010
1111111111001100
1100100111
1111111101011010
1111100111100110
1111010110010101
100010010001
1001111
10111101100
1111111111110101
11101110
11
1111110100011111
1111111100110011
100100
11111001010
1110011101
1111110001100001
1111101010111011
1111111111110101
1111010111010010
1111101010001010
1111111111001001
1111010110101111
1111100001100001
1111111111011100
101000
10111110
