1111110111011000
1111101110010100
1110100100
1111111101101111
1111111111010111
1111111111111001
1010110011
1111111100100110
1111111000101100
10101000
1111111111010011
1111111111011010
1111111101111000
1111111111100010
1111101110111000
101100010011
1111101111011010
10110000
1111101001010001
1111110101011100
1111101111111001
1100001
100110101110
11100111111
1111111111010011
1010011101
100111
100011100
1111111101001011
100100
