1111110011110001
1001110011
1111111011111111
1111111111010100
110110010
1011010
1111111010001010
1111011101001000
1111111101111011
1101011
1111111111100000
1000000
1111111111110000
10000001
1111110000001000
10010010010
1111100001110011
1111110000101001
1111111001000000
1111101010110101
1111111001011110
1111111100010111
1111110001011101
101011111
1010100
1111100000000110
1110011110
1111111101011100
101110
10001001
