1111111010010000
1111111101000000
1010111000
1010111
1111110101000110
10000111
1111101001100011
1111101111010011
1000
10111010
1111110010111000
11111000
1000
10011
1111110100011110
111100111
1111111101010111
1000011011
1111100101011011
110100010
10010011
1111111101011010
1111111000010010
1111110000010110
1111111111111001
1111110010010110
1111111101100110
110101
1111111101011111
10100101
