1111111101111011
1111000010001101
1011011
1111111111000010
10010110011
10100011
1111101011101001
1111101010000000
100010100111
1111111111110100
1111100100000110
1111111110110110
11010111
1111001
1111110111111010
1111101001010000
1111111010100011
1111111111010111
10101101001
10000100000
100000
1111111100101010
100011110
1111101001110011
1110010
1111111010001110
1111101001100111
1111111101101001
111111
1111111110100101
