1100011011
10000010001
1111111011010111
1111111101001000
1111111011010011
1111111110001100
1111110010100000
1111000111001010
1000011011
10010001
1111001
1111111110010000
1111111111100011
10001011
11100000011
1111110101101101
1111101101011001
1111101010110100
1110010101
1111111010100000
1111111001011000
1111111100000001
1111111101100011
1111100101000111
1000000
1111101110111110
1000111011
10000101
10011011
1111111111010001
