1111110011100111
1111110010001001
1111111010000101
10001101
10000011001
10100000
110000010101
1111101101001101
1000011010
10011001
11001
10000010
101101
1111111100110111
1111011101000011
1111100010101100
1111010010100011
1111101110010001
1111110001101000
1111100101110101
101010010
1111111111111110
1111110100001101
10110011110
1111111100101101
1111101111100110
1111101001001011
1111111110011111
1111111111110000
1111010
