11010110001
1111111101111101
101011
1111111111010111
10010000000
101001
100101
11011110
1111111011111111
1111111111000100
11010001100
1111111110000010
11001110
1111111010010100
101100011
1111100101111100
100011010
1111110011100111
1101111
1111111101001010
1111111001101001
100100110
1111111110001110
11110101
10001000
10000000000
1111111111101110
1111111111000111
10111111
1101110
