1111110101111000
1111100001001011
11011011111
1111111011001000
10000001100
1111111100101111
1111110110001010
1111101111011000
1111101111011011
11111
1110100100
1010
1010111
101000
1111111110101101
11001110110
1111110100001010
1000110011
1110110100001000
100100111110
1111111011011100
10110011
1000001010
110001111011
1111111011010101
10101110110
1111101100001010
1111111110011101
1010010
110111
