1111110000111010
1010010000
1111110001010100
110100
110011
10110011
1111110010011010
111111001
1001011101
10111110
1111101110110001
1111111110001010
1111111111011101
1111111101011101
0
1010101
1010001100
1111110111010101
1111111110110101
11010000101
101100010
1111111111001101
10110110
11101111110
1111110
11101000100
1100000110
1111111111111010
1111111011011010
1111111011100000
