1111100110100000
110001101
1111100111111101
1111111110010100
1111101110100000
10010001
10001000101
1111101011001110
1111110110000000
1001100
1111100111110110
1000010
10110010
11010
1010100110
100010001
1100100101
1111111100010111
1111111111100110
101010101
11100010
1010111
1111111111010010
1110001110
1111111111010110
1111111000110010
10000101111
1111111100100110
1111111101101011
1111111100011101
