1111111101011011
1111100001100001
10000010110
11100111
1111110100000001
1111111111100101
1000101101
1111111100101001
1111100001011010
1110000
1111110010100000
10011
1111111101100110
11111001
1111110100111111
10001011111
101001010
10111000111
1111011001110111
1111111000100101
1111101000101000
10010010
1001000
1010001010
1111111111111110
1111111011000111
1111011011100110
10011001
11101
10100
