1010001101
100001111
10100010000
1111111100100010
1111110010011110
1111111110111001
11011110
1101010010
1111110001000011
11010110
1110010110
1111111111110011
10101110
1111111011011000
1111010000111100
1111111111011101
1111000110010101
1111011011110100
1100001010
1111110001110010
10101011100
1111111101110010
10111101100
111000010
1111111111010110
1111111011010100
100000010
1101100
100001111
11111
