1111110010100001
1011101101
1111111101110011
11000
11001
10001000
1111111110100011
1111110011110111
1101001100
1111111101111000
1111110011011000
10101000
1111111110000011
1001100
1111111101100100
1010000
1111111111111111
1000011100
11000100
100000010011
1111111010110110
1111111110111001
1111111111
10100011110
1111111011111000
11011111010
1011000010
110110
10000011
1000011
