100101
1100001
1101001000
1111111110010101
100100000
1111111110001110
110100000
1111111011110011
1111111111010010
11000010
1111110110101010
1111111111110000
1111111111110010
1000101
1111111000000011
11110111001
1111101101101011
11101110
1001101110
1111111100000110
11000100101
1111111111010110
110110110
10001010111
111110
1111110111010010
110000
10100110
10010111
1111111100111111
