10101000001
1111111110101010
10000111000
1111111011001000
11001000000
1111111110101100
1111101001001100
1111111111000110
10001110011
1111111110110010
101010101
1111111111101010
11111
110110
1111110111011110
1111111011110011
11100010
100111101
1111101011
1111111001011010
11110100010
1111111010101101
1111111101001011
1111110101010000
11000010
1111100011010010
1000010001
111
1111111010101100
1010100
