1111100000110100
100
1111111110011110
11010
1100101100
1111111110111100
1110000110
1111110101110010
1111111000100010
1111111101110001
1111111110100011
1000010
1111111110000001
1111111110101110
1111010100111100
10010011101
1111110001010101
1111111010010010
1111111000111101
1111010100011100
101110100011
1111011
1111101000000100
1111111000111011
1111111111100011
1111011011111000
1111111110110000
110
1111111101100011
1111111110001011
