1111100011101011
1111111110101101
1001100111
1111111010000111
1111101100111100
101010010
100000
1111111101101011
1111111011100100
110010
1111100010101101
100110101
1111111101100000
1111111111001010
11111100
1111111101101001
11001101
1001111111
1111111110010101
1111110011001111
10100001001
110111
1111111100001101
1111111100001011
100010
1111111000111110
1111111100001101
110010100
10001100
1111111100111111
