1111110000101010
1111111000000010
1111111110110111
1111111101101011
1111111110101110
1111111101100100
1111101001110110
10001000
101011010
1111111101101101
1111101101010011
100101100
1111111111100100
10111111
1111100110111000
10111001010
1111101111001101
1111101110000011
1111110100001001
1111111101100000
11100010111
11
1111111010100011
1111101101010010
1111111100000110
1111111000011001
110100100
1111111101010100
100011
1111111101100001
