1111101011000011
1111110011000001
1011111111
1111111110010111
11000100111
1111111111011011
1011100011
1111110100101100
1111111010111101
1111111111001011
1011000011
110001110
1011000
1111111100001001
1111101001111010
1110011111
1111011100111001
1111110000010110
1
1111101001101100
1111111100111011
1111111111101100
1111110000100100
10101101
1111111011100100
1111110010100000
1111111100101101
1111100
111010
1001111
