10011001010
1111101111111111
1111110011100100
1000010
1001010010
1111111110110011
1111110110101000
1111111100101110
10000110101
10010001
1111111000110011
1111111110000110
11111
1111111111101011
1111111100100010
1111111000101011
1111111110000001
1111111111100010
1110010110
1111111100011000
10101001000
1111111111110100
1111111111011010
1111110001100001
11101
1111111000111111
1111111100011001
1111111101110010
1111111010011101
1111111111101011
