1111111110010000
1111111111000000
1111111101000110
101100001
1110100
1111111110110101
1111111101001110
1101111
10010011
1111111000011010
10110111
1111111101010010
1111111110100110
110010
1111111110101011
1111111111011000
1111111111011111
1100100
1111111101100111
1111111111011000
1111111110100100
1111111100010001
1111111100111001
1010000
1101010
1111111
0
1111111110001000
1111111101100101
1111111111000100
