1111101001111100
1101011000
1111100111010001
1111111010100100
1111111100000101
1111111100100001
1111111100110100
1111100111100010
11010001001
1111111111100001
1111110111101100
100101000
11001
10000101
1111111001000111
10101010000
1111111000001000
10001111110
10010111
100110010110
1111110010100100
1111111110010000
100000111010
10101000011
1111111110011110
100110110011
100001011
1111111101011001
1111111100011001
1100101
