1111110100000110
1111111100111010
1000011110
10011110
110100110
11001011
1111110011100000
1100101110
111001
1111110
1111101110000000
1111111111011010
111111
1111111100111001
1111111011101001
1111111011111000
1111101100111011
1111101110001110
101011011
1111110110001000
1110001011
111000
1111111111000111
1010011100
101000
1111111011000011
1011010100
1111111101011001
1001
11111
