1111111110111111
11011001011
1111101110011111
11011010
1111111110011111
10010111
1111101100100111
1111111001010000
10011101011
1111111110101011
1111101101001101
1111111100110000
1001001
110101001
1110000
1111110011011011
1110011
1111110100101110
10001000101
110110
10011101100
1111111101010010
1111111001011000
11110111
11000000
10011101100
101111111000
100011010
10011
1111111111110011
