1011000001
1111111110100111
1111001
1000110
1010010001
1111111100110111
1111110110101100
1111111111010000
1111111110001001
1111111111010111
1111111100111110
1111111101111000
1111111011111000
100011100
1111101011111101
100001110001
1111110011101001
1111101001001110
1111110100010001
1111101011011000
1110100101
1111111101110011
110001110
1111110101011011
1111111101110010
1111110100110000
11001100011
11001111
1111111110100011
11101001
