10110011100
1011000100
10010011010
101111
1110111011
100100010
11110000
111
111110010
111111
10000011010
1111111101100010
110000
11011001
1111110010100010
1110011001
1111110010000010
1111110110100010
10000000
1111101010110110
1110111000
101000100
1111111110111111
1111111010100011
110000100
1111110010000010
1010001011
1000000
110010
110000
