11000000110
1111101001010000
1011101001
10011
1101011000
10000110
111110
1111110110110101
1111110101101101
1111111100111011
10101011110
1111111011110110
1110
1111111111010101
10011000101
1100001000
1011111111
100010110
1111111110001100
1111110100001111
1111111000100110
11001110
1010000011
1010010110
1111111101001000
1000101100
1111110001110000
11100010
1111111101111100
1111111100110011
