1111100001111001
1111100110011010
1111110111001101
1000110
1111100101001100
1010111
1111111010011100
111111010
1111100110101101
1111111100000011
1111100001111101
11100
1111111101111010
1011001
1111110100010111
10011110011
1111111111101000
1110101110
1111100011010100
1111111101100100
1111011101010010
11110001
1111101110011011
1000011011
1111111111001011
1111101100011001
1111100001001101
1111111110110011
1111111101000001
1011111
