1111111010100111
1111110100110000
1100010
1111111110101001
1111111110011001
1110
1111100101010100
1111110001000011
1111111010010101
11000110
1110000
1011000
1111001
1111111111011011
1111111111000001
11110000
1111111010000011
1111000
1111111110000110
10011001011
11111000100
101001
10101110100
1111110011101001
1111111100100001
10110000000
1111110101110111
1111111110111001
1111111101001110
1111111111101101
