1111111110011101
1111011001011100
100010011
100111110
100101110
1111101111100101
1001000010
1111110001000001
1111011010011011
1111110001011001
1111111100110011
111111101
1111001000110110
1111111101011010
101101111
1111010011001100
1001101000
1111111111110001
1111101011011110
1111100011011100
1111011100001111
10000101111
1111110000110010
1111111111010110
101110110
1111111111101000
11000
1111110110101110
1111101100010110
10011
