1111110111001100
1111100010110001
1111011010000111
1110110100
10101001111
1111100111101100
1111110111000010
1111011000001100
1111111101110101
10010001010
1111010
100001110
1111111011111100
110101101
1111101000001110
100001101
1111100110011101
1111111010101001
1111110000110111
1111000111100000
1000110011
10011111
1110111
1111111011011001
1111101110101010
1111110111000010
1001
1111110101111111
1111011011000110
1111111101110100
