11010101
1111011111000110
1000100011
10010110010
10011010011
1111110000001100
1111111110100011
1111111111111001
1110101
1111101001001100
1101111010
1111011100011011
1101101
1111010010000111
111000011
100010000
1111011110010001
1111011111010101
1111100110100010
1111111110101001
1111111110000111
1111111111010111
1111111000000101
111011
1111010101100101
1111011001010100
1111111111001111
1111111001001110
110010101
1111110100111111
