1111111101001111
1010010011
1111101101100001
1111110000110010
1100011101
1111100010111100
1111011001
1111100101011111
1010100
1111011100011010
1111100110101110
101010000
1111111101010111
1111100110000001
11000111
1111111111101010
100001011
1111100000011110
1100100110
1111111101101110
1111101001000000
1000011101
10010010100
1111100101100000
1111111000110110
1111011010100100
10100000111
1111011100011101
1111111101111110
100000
