11011111
10111001
1111111110001111
1010011
1011011
1111111110110110
1111111111000100
10101
1111111110001011
1111111110000101
110010
1111111101010100
1111111110000000
1101011
1111111001001011
1101101
1110011
1111111110011011
1111111111100100
1111111011100000
1111111110001101
110110110
11010
1111111111110111
11011
1111111111001011
10001010
1111111111100101
1111111000100011
1001011
