1111111101011101
101011011
1111111011011001
1111100101010110
1111110001101110
100000010010
1001010
1111111011000001
1111111000110000
1111101011001110
1111110010011001
1111111000001000
100011001
1111101101111011
1111101110101110
1111110000110111
1111111000000010
1111111011101111
10000011100
100100000
11010101000
1111110110011010
10011010111
1111111111110110
1111110000100101
1111111111100001
1011011001
1111111101110001
1111110111000010
11100
