1111111101010101
1111110011101010
1111111101011000
110111000
1111110001011001
1111101000110001
1111111000110011
101111000
1111100111110111
1101010100
111001111
1001000110
1111111100011111
1111100110000001
111011101
1111110010111001
1100110111
10101000010
1111110010001101
1111111101101101
1111111111101110
1111110111001100
1111111010001110
1111111100100000
1111110110010011
10001110110
1111110101010110
110101000
1111110000100101
1111100100100011
