1111111011101011
1001111100
10111101
1110000110
110100111011
1111100000010111
1111011111011111
111010001
110111001
10000011010
100001011
1000110001
1111111110010011
10010000110
1111010011
1010110000
1100001011
1000010101
111101100
1111111110100100
1111111010110100
100110111001
1111110100000011
1111101100101111
1010011110
110100101
1111100010110111
1111111110100101
101110010
11111001
