10111000
1101110010
1111111100100101
100010100
100
1111011111101011
1111110100000011
100000100
1111001001101001
10110010
1111110111000110
1111111110101100
1111110100110101
1111111011111111
110000110
1111111110000100
100101010
1111111101111100
1011110110
1110011
1010010
1111111101111010
10100110
1111101011110101
1111010101100011
1111111101000110
1111110101100011
1111111101101101
1111110110000100
1111001111000001
