1111111100011000
101010101
1111101101101101
1111110111011000
1111111101000011
1111110111101111
1111111000010011
111001101
1010111011
1111101001100111
100000
1111111010101111
1010110000
1100111000
1111110001100000
1111110011111011
1111110000001111
1111001000
111010100
11100011
1111110101110101
1111111101110001
110000
1111111100101000
1111101111111001
1111101001101010
1111111011101010
1101001111
1111111111011001
10000101101
